<unk>	0
<s>	0
</s>	0
<|user|>	0
<|bot|>	0
<EOS>	0
<|new_book|>	0
▁t	-0
he	-1
▁a	-2
in	-3
▁s	-4
▁w	-5
▁the	-6
re	-7
▁o	-8
ha	-9
nd	-10
ou	-11
er	-12
▁b	-13
▁m	-14
ed	-15
it	-16
is	-17
en	-18
▁f	-19
▁c	-20
▁to	-21
on	-22
ing	-23
▁and	-24
▁of	-25
▁d	-26
or	-27
▁he	-28
▁h	-29
▁p	-30
ll	-31
as	-32
es	-33
▁in	-34
▁l	-35
ar	-36
an	-37
▁ha	-38
▁n	-39
at	-40
▁I	-41
om	-42
hat	-43
▁be	-44
le	-45
ot	-46
▁g	-47
▁y	-48
▁“	-49
▁e	-50
ow	-51
ut	-52
im	-53
ic	-54
ve	-55
id	-56
▁you	-57
ly	-58
▁was	-59
se	-60
ld	-61
st	-62
▁that	-63
▁th	-64
▁re	-65
ent	-66
▁it	-67
▁on	-68
gh	-69
ce	-70
▁his	-71
ver	-72
▁wh	-73
ith	-74
ion	-75
et	-76
ay	-77
▁with	-78
▁her	-79
▁u	-80
▁as	-81
▁for	-82
ir	-83
▁M	-84
▁not	-85
▁had	-86
al	-87
ad	-88
ur	-89
▁T	-90
ro	-91
ght	-92
▁st	-93
▁at	-94
▁an	-95
▁sa	-96
▁we	-97
ch	-98
her	-99
ould	-100
ri	-101
▁him	-102
ct	-103
▁me	-104
▁is	-105
oo	-106
▁A	-107
ill	-108
ter	-109
▁she	-110
ra	-111
▁my	-112
▁se	-113
ke	-114
if	-115
▁H	-116
red	-117
▁so	-118
▁S	-119
▁have	-120
▁su	-121
.”	-122
ess	-123
am	-124
ain	-125
▁The	-126
▁said	-127
▁de	-128
ich	-129
pe	-130
▁but	-131
ore	-132
▁k	-133
▁con	-134
▁which	-135
▁all	-136
ome	-137
qu	-138
il	-139
▁B	-140
rom	-141
,”	-142
all	-143
ul	-144
▁do	-145
th	-146
▁by	-147
ble	-148
ight	-149
lf	-150
ge	-151
▁ex	-152
▁ne	-153
pp	-154
very	-155
ck	-156
res	-157
and	-158
▁sh	-159
▁this	-160
ant	-161
▁from	-162
ard	-163
us	-164
▁who	-165
▁up	-166
os	-167
▁whe	-168
▁r	-169
ous	-170
▁W	-171
▁fe	-172
▁Mr	-173
▁were	-174
ust	-175
est	-176
▁P	-177
ation	-178
▁kn	-179
▁li	-180
▁v	-181
▁no	-182
▁or	-183
▁man	-184
te	-185
our	-186
▁one	-187
self	-188
art	-189
▁would	-190
▁al	-191
▁C	-192
ie	-193
out	-194
ind	-195
▁He	-196
ist	-197
ol	-198
nt	-199
ood	-200
ers	-201
▁been	-202
▁they	-203
ook	-204
em	-205
▁are	-206
?”	-207
ak	-208
▁your	-209
▁com	-210
ast	-211
han	-212
▁D	-213
▁ab	-214
one	-215
ate	-216
▁them	-217
▁there	-218
ong	-219
▁will	-220
▁what	-221
▁out	-222
▁le	-223
itt	-224
ough	-225
ort	-226
ven	-227
▁wor	-228
▁L	-229
▁‘	-230
ound	-231
au	-232
um	-233
▁int	-234
ig	-235
ell	-236
▁could	-237
ive	-238
▁when	-239
▁qu	-240
▁know	-241
▁am	-242
la	-243
▁un	-244
ost	-245
--	-246
hed	-247
▁if	-248
un	-249
ame	-250
▁ag	-251
ity	-252
▁fa	-253
ry	-254
▁F	-255
hing	-256
▁very	-257
▁j	-258
▁go	-259
pt	-260
ure	-261
▁any	-262
▁af	-263
▁more	-264
ther	-265
▁pro	-266
▁look	-267
..	-268
ved	-269
el	-270
able	-271
▁their	-272
ag	-273
▁"	-274
ect	-275
reat	-276
ide	-277
ose	-278
▁tim	-279
nder	-280
own	-281
▁did	-282
ine	-283
▁into	-284
▁some	-285
urn	-286
▁im	-287
ake	-288
ress	-289
ence	-290
▁sp	-291
op	-292
!”	-293
▁ro	-294
▁ar	-295
▁G	-296
ance	-297
ought	-298
way	-299
▁too	-300
▁than	-301
ass	-302
▁E	-303
ink	-304
od	-305
▁can	-306
▁N	-307
other	-308
▁dis	-309
ite	-310
▁like	-311
▁now	-312
ice	-313
▁It	-314
▁sha	-315
ittle	-316
pl	-317
▁hand	-318
▁R	-319
▁say	-320
▁see	-321
fore	-322
cc	-323
▁little	-324
▁ad	-325
ep	-326
▁tw	-327
ick	-328
ather	-329
▁about	-330
You	-331
▁should	-332
▁time	-333
ng	-334
ci	-335
ving	-336
▁only	-337
wn	-338
▁other	-339
▁again	-340
ally	-341
▁J	-342
▁en	-343
ment	-344
ru	-345
▁then	-346
▁us	-347
ade	-348
ert	-349
▁ch	-350
are	-351
ove	-352
ish	-353
ond	-354
ne	-355
▁br	-356
ked	-357
ied	-358
▁over	-359
ady	-360
uch	-361
▁But	-362
ire	-363
▁has	-364
ered	-365
▁cl	-366
▁And	-367
▁She	-368
▁per	-369
▁pr	-370
ov	-371
ap	-372
▁off	-373
▁must	-374
▁O	-375
me	-376
▁how	-377
ran	-378
ness	-379
▁good	-380
▁before	-381
▁such	-382
▁day	-383
ff	-384
▁every	-385
ies	-386
ary	-387
ount	-388
▁himself	-389
ile	-390
ife	-391
▁think	-392
ac	-393
age	-394
ud	-395
ful	-396
▁po	-397
ars	-398
▁rem	-399
▁much	-400
bl	-401
▁pre	-402
ack	-403
▁thought	-404
ried	-405
▁even	-406
iss	-407
▁after	-408
▁under	-409
ated	-410
ree	-411
ings	-412
▁never	-413
▁ey	-414
▁down	-415
▁made	-416
▁cha	-417
▁long	-418
▁pe	-419
ious	-420
▁great	-421
▁sm	-422
ward	-423
▁fir	-424
▁old	-425
rie	-426
▁upon	-427
▁two	-428
▁bet	-429
ions	-430
▁own	-431
▁beg	-432
ull	-433
▁part	-434
ons	-435
▁gr	-436
▁spe	-437
ty	-438
▁come	-439
ced	-440
▁des	-441
▁Th	-442
▁imp	-443
▁res	-444
▁gl	-445
▁bl	-446
ord	-447
▁seem	-448
ach	-449
ps	-450
oy	-451
▁ind	-452
ab	-453
ild	-454
ouse	-455
▁fl	-456
▁well	-457
ise	-458
▁sc	-459
ave	-460
▁bec	-461
ince	-462
▁might	-463
▁first	-464
right	-465
▁our	-466
oll	-467
▁Mrs	-468
▁V	-469
per	-470
ened	-471
▁comp	-472
omet	-473
ning	-474
▁let	-475
▁_	-476
▁thr	-477
▁pl	-478
si	-479
ft	-480
ily	-481
ue	-482
▁pass	-483
▁ob	-484
▁without	-485
▁its	-486
hen	-487
▁may	-488
▁way	-489
▁cont	-490
pect	-491
▁eyes	-492
old	-493
▁turn	-494
int	-495
ber	-496
we	-497
▁cons	-498
▁just	-499
▁went	-500
▁young	-501
▁op	-502
▁here	-503
ign	-504
▁being	-505
▁word	-506
▁nothing	-507
▁came	-508
man	-509
ves	-510
▁ra	-511
▁shall	-512
thing	-513
▁somet	-514
riend	-515
▁though	-516
▁ret	-517
ren	-518
leas	-519
▁ap	-520
▁friend	-521
▁away	-522
▁back	-523
▁bel	-524
▁head	-525
▁ent	-526
▁happ	-527
▁pla	-528
,’	-529
▁last	-530
▁these	-531
cl	-532
▁where	-533
▁house	-534
▁wom	-535
▁still	-536
ath	-537
ces	-538
▁tr	-539
▁most	-540
▁acc	-541
▁feel	-542
ark	-543
▁te	-544
▁face	-545
▁pres	-546
▁life	-547
ock	-548
▁make	-549
▁You	-550
oment	-551
▁moment	-552
lt	-553
▁pos	-554
ause	-555
▁don	-556
▁looked	-557
▁want	-558
ever	-559
aking	-560
alk	-561
▁ser	-562
."	-563
▁room	-564
led	-565
▁door	-566
▁once	-567
iff	-568
ew	-569
▁tell	-570
▁ke	-571
▁same	-572
med	-573
li	-574
ways	-575
ared	-576
less	-577
▁gent	-578
ner	-579
▁heart	-580
ertain	-581
▁app	-582
▁those	-583
▁seemed	-584
▁pleas	-585
▁rec	-586
▁put	-587
sw	-588
▁wr	-589
ged	-590
▁saw	-591
▁get	-592
▁In	-593
og	-594
▁always	-595
▁call	-596
den	-597
▁count	-598
▁take	-599
▁child	-600
▁love	-601
.’	-602
▁pers	-603
ople	-604
ret	-605
▁through	-606
▁att	-607
here	-608
▁answ	-609
▁mind	-610
▁rep	-611
ject	-612
▁something	-613
itch	-614
▁K	-615
▁mar	-616
ier	-617
▁mean	-618
ult	-619
air	-620
▁took	-621
atter	-622
av	-623
▁ever	-624
row	-625
ished	-626
Yes	-627
hy	-628
ined	-629
▁Miss	-630
▁men	-631
▁felt	-632
▁appe	-633
▁sat	-634
▁gentle	-635
▁exp	-636
▁left	-637
▁ye	-638
▁inst	-639
▁car	-640
▁quite	-641
▁yet	-642
▁another	-643
iz	-644
▁father	-645
▁comm	-646
▁There	-647
▁people	-648
rew	-649
▁right	-650
ition	-651
▁asked	-652
▁going	-653
for	-654
▁dist	-655
▁end	-656
▁har	-657
ian	-658
▁heard	-659
ction	-660
▁night	-661
ope	-662
cy	-663
▁ac	-664
▁belie	-665
na	-666
▁hands	-667
▁found	-668
owed	-669
ict	-670
▁return	-671
▁dear	-672
▁herself	-673
oth	-674
▁mor	-675
ory	-676
hes	-677
iness	-678
▁cour	-679
plied	-680
▁em	-681
ip	-682
▁supp	-683
▁inte	-684
▁They	-685
▁woman	-686
▁conf	-687
▁sec	-688
ener	-689
▁myself	-690
▁while	-691
ia	-692
igh	-693
fect	-694
▁ass	-695
ently	-696
▁cried	-697
wards	-698
iv	-699
▁place	-700
▁replied	-701
ting	-702
▁wa	-703
▁soon	-704
ations	-705
ither	-706
▁hor	-707
▁give	-708
▁add	-709
ract	-710
▁new	-711
▁co	-712
most	-713
▁began	-714
▁set	-715
the	-716
ens	-717
▁exc	-718
▁vo	-719
▁three	-720
▁fell	-721
ase	-722
▁knew	-723
▁mother	-724
What	-725
ang	-726
aught	-727
▁underst	-728
▁arm	-729
▁This	-730
eed	-731
ired	-732
ater	-733
▁light	-734
aint	-735
▁whom	-736
▁better	-737
▁ear	-738
ix	-739
haps	-740
ody	-741
fort	-742
▁thing	-743
▁What	-744
not	-745
▁certain	-746
get	-747
ense	-748
▁read	-749
▁(	-750
ere	-751
▁done	-752
▁ev	-753
▁many	-754
▁diff	-755
ched	-756
▁having	-757
▁sil	-758
sible	-759
▁told	-760
▁sub	-761
▁kind	-762
▁gra	-763
▁sur	-764
ained	-765
ev	-766
▁sl	-767
▁seen	-768
cess	-769
And	-770
sel	-771
▁gi	-772
...	-773
▁del	-774
▁dra	-775
▁find	-776
▁An	-777
der	-778
▁ref	-779
▁wind	-780
pped	-781
▁sir	-782
▁whole	-783
ister	-784
▁rel	-785
▁gu	-786
▁reg	-787
▁hour	-788
▁Mar	-789
▁chan	-790
▁la	-791
It	-792
▁foll	-793
ised	-794
ute	-795
aken	-796
▁occ	-797
up	-798
▁got	-799
les	-800
irl	-801
▁because	-802
cept	-803
▁nat	-804
▁round	-805
und	-806
rest	-807
dden	-808
▁min	-809
vers	-810
▁half	-811
ss	-812
▁things	-813
▁tra	-814
▁turned	-815
▁world	-816
osed	-817
▁At	-818
▁home	-819
The	-820
▁looking	-821
ully	-822
▁against	-823
▁rest	-824
Oh	-825
▁lau	-826
▁voice	-827
▁sudden	-828
▁work	-829
▁disc	-830
ower	-831
▁morning	-832
bt	-833
ual	-834
▁hear	-835
▁talk	-836
▁words	-837
az	-838
mer	-839
▁almost	-840
▁St	-841
▁anything	-842
ott	-843
▁rather	-844
ween	-845
ention	-846
▁adv	-847
▁far	-848
▁fam	-849
▁ins	-850
▁inter	-851
▁girl	-852
▁lo	-853
▁gener	-854
agn	-855
ited	-856
cei	-857
▁point	-858
ery	-859
oud	-860
▁side	-861
ressed	-862
▁vis	-863
▁present	-864
▁As	-865
gg	-866
▁letter	-867
▁pur	-868
▁name	-869
▁bre	-870
oke	-871
▁cle	-872
▁quest	-873
ins	-874
▁between	-875
No	-876
ately	-877
▁dou	-878
▁sure	-879
▁stre	-880
rt	-881
ating	-882
ale	-883
Well	-884
ool	-885
▁che	-886
▁matter	-887
▁cor	-888
▁since	-889
ks	-890
▁both	-891
▁cur	-892
▁believe	-893
▁person	-894
But	-895
▁ter	-896
▁enough	-897
▁years	-898
▁When	-899
▁stran	-900
▁inc	-901
▁lady	-902
ial	-903
▁indeed	-904
▁speak	-905
▁course	-906
aut	-907
▁understand	-908
its	-909
▁We	-910
▁poor	-911
▁act	-912
▁bo	-913
▁el	-914
▁gave	-915
▁care	-916
ows	-917
▁hum	-918
▁dec	-919
uth	-920
▁open	-921
aster	-922
▁near	-923
iet	-924
▁ide	-925
▁Pr	-926
,"	-927
ular	-928
nded	-929
ross	-930
▁If	-931
▁perhaps	-932
ple	-933
▁mon	-934
▁each	-935
▁does	-936
▁hard	-937
ical	-938
▁wife	-939
ured	-940
▁obs	-941
▁cr	-942
▁dre	-943
ued	-944
▁str	-945
?"	-946
oun	-947
ents	-948
▁few	-949
▁hon	-950
▁serv	-951
▁war	-952
atch	-953
▁Jo	-954
sh	-955
?’	-956
▁contin	-957
▁boy	-958
ling	-959
owing	-960
ason	-961
fully	-962
▁bed	-963
so	-964
▁remem	-965
▁mo	-966
▁evening	-967
▁nor	-968
day	-969
▁sent	-970
ably	-971
▁tre	-972
ors	-973
▁suff	-974
oney	-975
▁called	-976
tered	-977
▁really	-978
ger	-979
▁keep	-980
ont	-981
▁stood	-982
ky	-983
▁taken	-984
▁less	-985
▁All	-986
men	-987
that	-988
▁alone	-989
▁aw	-990
▁sort	-991
▁inf	-992
▁That	-993
ey	-994
▁gentleman	-995
agnan	-996
selves	-997
unt	-998
▁brought	-999
▁answered	-1000
▁His	-1001
▁bus	-1002
▁bro	-1003
▁hope	-1004
xt	-1005
Art	-1006
▁best	-1007
▁hel	-1008
▁tru	-1009
▁hus	-1010
▁ask	-1011
▁towards	-1012
▁passed	-1013
▁however	-1014
▁everything	-1015
▁Then	-1016
▁beh	-1017
Artagnan	-1018
▁sim	-1019
▁cond	-1020
▁cannot	-1021
▁express	-1022
▁doubt	-1023
▁sw	-1024
ovitch	-1025
fa	-1026
iled	-1027
ield	-1028
eth	-1029
ceived	-1030
!’	-1031
ures	-1032
▁sister	-1033
ering	-1034
▁wish	-1035
▁fact	-1036
▁inv	-1037
▁On	-1038
thos	-1039
▁gone	-1040
▁suddenly	-1041
▁till	-1042
▁ext	-1043
▁obser	-1044
▁brother	-1045
but	-1046
▁eff	-1047
alked	-1048
body	-1049
▁expect	-1050
iting	-1051
▁dark	-1052
adame	-1053
▁God	-1054
ken	-1055
▁least	-1056
▁air	-1057
▁det	-1058
cious	-1059
▁stand	-1060
▁unc	-1061
▁adm	-1062
ready	-1063
▁interest	-1064
used	-1065
▁es	-1066
pan	-1067
▁leave	-1068
▁mis	-1069
▁ill	-1070
▁ca	-1071
▁list	-1072
oul	-1073
▁days	-1074
be	-1075
▁dire	-1076
▁money	-1077
▁abs	-1078
▁question	-1079
▁among	-1080
riage	-1081
▁dep	-1082
▁No	-1083
bed	-1084
▁already	-1085
vel	-1086
▁why	-1087
▁table	-1088
▁need	-1089
ern	-1090
▁fore	-1091
▁compan	-1092
pr	-1093
▁returned	-1094
gether	-1095
▁together	-1096
ten	-1097
oc	-1098
▁beaut	-1099
lack	-1100
ief	-1101
de	-1102
ceed	-1103
▁full	-1104
▁prop	-1105
▁sle	-1106
▁aff	-1107
▁Y	-1108
ying	-1109
ash	-1110
▁help	-1111
▁prom	-1112
band	-1113
aring	-1114
ides	-1115
▁four	-1116
rying	-1117
▁char	-1118
ean	-1119
▁behind	-1120
ace	-1121
▁family	-1122
cri	-1123
▁ran	-1124
▁yourself	-1125
ible	-1126
He	-1127
▁short	-1128
du	-1129
▁How	-1130
▁ma	-1131
aughter	-1132
att	-1133
ached	-1134
ieur	-1135
▁whose	-1136
tem	-1137
▁play	-1138
▁fire	-1139
▁use	-1140
ided	-1141
▁husband	-1142
ole	-1143
orrow	-1144
▁mist	-1145
▁step	-1146
oot	-1147
▁small	-1148
ctor	-1149
▁Do	-1150
ude	-1151
▁happy	-1152
▁forg	-1153
▁often	-1154
▁ir	-1155
▁opp	-1156
▁lay	-1157
▁smile	-1158
▁feeling	-1159
▁real	-1160
▁friends	-1161
▁fall	-1162
▁reason	-1163
imes	-1164
ually	-1165
▁ste	-1166
itting	-1167
▁given	-1168
arge	-1169
you	-1170
ny	-1171
▁next	-1172
onsieur	-1173
▁whether	-1174
ene	-1175
▁So	-1176
▁wo	-1177
▁walk	-1178
room	-1179
ison	-1180
▁sign	-1181
ught	-1182
▁true	-1183
rov	-1184
ider	-1185
lex	-1186
▁high	-1187
▁spir	-1188
bert	-1189
▁laugh	-1190
▁also	-1191
laim	-1192
▁ru	-1193
uring	-1194
▁Mary	-1195
▁imag	-1196
king	-1197
▁else	-1198
use	-1199
▁stru	-1200
ted	-1201
▁dro	-1202
▁draw	-1203
land	-1204
....	-1205
riv	-1206
That	-1207
▁idea	-1208
▁manner	-1209
▁Ar	-1210
▁dr	-1211
▁black	-1212
enty	-1213
ik	-1214
▁cir	-1215
▁To	-1216
▁conv	-1217
▁form	-1218
▁others	-1219
▁son	-1220
▁general	-1221
▁strange	-1222
▁swe	-1223
uck	-1224
▁ut	-1225
▁coming	-1226
▁strong	-1227
▁bes	-1228
fe	-1229
▁lad	-1230
▁power	-1231
airs	-1232
▁dev	-1233
cing	-1234
▁Ch	-1235
▁prince	-1236
▁order	-1237
▁sound	-1238
ants	-1239
ousand	-1240
▁subject	-1241
▁run	-1242
▁sit	-1243
ety	-1244
by	-1245
▁themselves	-1246
▁For	-1247
ments	-1248
▁respect	-1249
▁Be	-1250
ctly	-1251
▁case	-1252
undred	-1253
▁live	-1254
▁yes	-1255
arn	-1256
▁thousand	-1257
▁acqu	-1258
,—	-1259
▁cap	-1260
▁disp	-1261
ility	-1262
of	-1263
▁perfect	-1264
▁second	-1265
▁appro	-1266
▁meet	-1267
▁Well	-1268
▁hold	-1269
▁inqu	-1270
▁answer	-1271
cha	-1272
▁Her	-1273
▁hur	-1274
▁death	-1275
ail	-1276
▁hundred	-1277
▁Em	-1278
▁expl	-1279
▁white	-1280
▁art	-1281
▁circ	-1282
asy	-1283
▁appear	-1284
▁pret	-1285
▁pol	-1286
ati	-1287
▁fr	-1288
▁deep	-1289
▁charact	-1290
▁fellow	-1291
▁object	-1292
▁children	-1293
une	-1294
▁affect	-1295
▁fort	-1296
▁My	-1297
ones	-1298
▁fin	-1299
wick	-1300
▁added	-1301
▁Sir	-1302
ster	-1303
ances	-1304
▁window	-1305
▁Eng	-1306
▁appeared	-1307
ets	-1308
ung	-1309
ident	-1310
▁Madame	-1311
▁soul	-1312
Why	-1313
▁tri	-1314
▁sing	-1315
rench	-1316
erent	-1317
▁fear	-1318
▁bar	-1319
ane	-1320
rist	-1321
▁large	-1322
▁business	-1323
▁possible	-1324
iew	-1325
▁par	-1326
▁din	-1327
che	-1328
▁times	-1329
▁wonder	-1330
▁surpr	-1331
▁unt	-1332
▁bur	-1333
▁used	-1334
ma	-1335
▁kept	-1336
antly	-1337
▁close	-1338
▁eye	-1339
▁soci	-1340
ird	-1341
▁pu	-1342
▁necess	-1343
ickwick	-1344
▁met	-1345
▁quiet	-1346
▁master	-1347
▁begin	-1348
▁opin	-1349
▁delight	-1350
▁ten	-1351
rence	-1352
▁continued	-1353
▁won	-1354
▁making	-1355
▁remember	-1356
▁Pickwick	-1357
▁pap	-1358
▁longer	-1359
▁sun	-1360
▁opened	-1361
▁partic	-1362
ec	-1363
ho	-1364
▁hast	-1365
▁prof	-1366
▁convers	-1367
ton	-1368
ushed	-1369
ram	-1370
to	-1371
▁red	-1372
▁Iv	-1373
ille	-1374
▁hair	-1375
▁fur	-1376
▁repe	-1377
medi	-1378
▁means	-1379
▁known	-1380
▁visit	-1381
▁satis	-1382
ask	-1383
raid	-1384
▁sto	-1385
thy	-1386
▁cal	-1387
▁cold	-1388
▁occas	-1389
▁gard	-1390
▁mer	-1391
overed	-1392
▁saying	-1393
▁pleasure	-1394
My	-1395
▁ready	-1396
▁tem	-1397
mon	-1398
ump	-1399
▁ord	-1400
▁taking	-1401
sp	-1402
▁entered	-1403
▁either	-1404
▁stra	-1405
▁Ste	-1406
▁dead	-1407
▁consider	-1408
▁offic	-1409
▁town	-1410
ush	-1411
▁nature	-1412
▁bad	-1413
▁Alex	-1414
▁chair	-1415
ising	-1416
▁wanted	-1417
iously	-1418
▁clear	-1419
ates	-1420
▁fav	-1421
▁women	-1422
bly	-1423
bled	-1424
▁truth	-1425
itted	-1426
oura	-1427
▁Pet	-1428
▁five	-1429
▁French	-1430
▁bring	-1431
▁book	-1432
bb	-1433
▁sum	-1434
ime	-1435
▁wall	-1436
oor	-1437
▁secret	-1438
▁within	-1439
▁tou	-1440
ities	-1441
nding	-1442
lect	-1443
▁says	-1444
urch	-1445
▁lost	-1446
▁prev	-1447
ney	-1448
▁account	-1449
wor	-1450
▁character	-1451
ized	-1452
ank	-1453
ses	-1454
ee	-1455
▁spoke	-1456
▁water	-1457
▁start	-1458
▁country	-1459
▁immedi	-1460
▁afraid	-1461
▁became	-1462
ierre	-1463
aw	-1464
▁held	-1465
▁horse	-1466
utes	-1467
▁pain	-1468
▁mur	-1469
illed	-1470
▁Ivan	-1471
▁ought	-1472
ans	-1473
▁daughter	-1474
▁low	-1475
▁suppose	-1476
ination	-1477
ution	-1478
ming	-1479
▁quick	-1480
amp	-1481
▁dress	-1482
▁itself	-1483
br	-1484
▁diffic	-1485
▁glad	-1486
cul	-1487
irt	-1488
fter	-1489
▁fan	-1490
▁along	-1491
▁six	-1492
har	-1493
▁eng	-1494
▁ang	-1495
itude	-1496
iling	-1497
peri	-1498
▁U	-1499
▁become	-1500
▁Val	-1501
▁Par	-1502
▁sometimes	-1503
How	-1504
▁conc	-1505
als	-1506
▁hat	-1507
▁foot	-1508
▁human	-1509
Ah	-1510
▁pretty	-1511
ead	-1512
▁gre	-1513
orn	-1514
idence	-1515
aven	-1516
rig	-1517
ented	-1518
bles	-1519
ovna	-1520
▁walked	-1521
▁land	-1522
▁received	-1523
idd	-1524
ley	-1525
▁certainly	-1526
▁sense	-1527
▁ground	-1528
ek	-1529
rel	-1530
▁trou	-1531
▁dri	-1532
night	-1533
▁Now	-1534
▁pa	-1535
▁stay	-1536
▁mad	-1537
▁sn	-1538
▁Pierre	-1539
ging	-1540
▁king	-1541
▁tran	-1542
▁road	-1543
▁followed	-1544
tempt	-1545
iful	-1546
▁obl	-1547
▁minutes	-1548
▁requ	-1549
▁state	-1550
▁doing	-1551
▁whis	-1552
▁Al	-1553
▁month	-1554
over	-1555
▁est	-1556
▁particular	-1557
▁therefore	-1558
ific	-1559
▁arms	-1560
▁rose	-1561
▁Prince	-1562
▁expression	-1563
▁desp	-1564
mp	-1565
▁natur	-1566
▁dream	-1567
▁Gr	-1568
▁One	-1569
▁comfort	-1570
▁resol	-1571
▁conversation	-1572
▁prin	-1573
▁happened	-1574
what	-1575
▁fine	-1576
▁joy	-1577
akes	-1578
ively	-1579
otion	-1580
▁bit	-1581
▁prob	-1582
▁bu	-1583
▁above	-1584
▁terri	-1585
▁garden	-1586
▁past	-1587
▁seeing	-1588
form	-1589
▁opinion	-1590
ius	-1591
▁Athos	-1592
▁mere	-1593
▁different	-1594
▁jud	-1595
▁sy	-1596
ror	-1597
▁scar	-1598
▁une	-1599
sess	-1600
▁deal	-1601
iar	-1602
▁silence	-1603
▁occasion	-1604
▁Why	-1605
my	-1606
▁sitting	-1607
outh	-1608
▁acquaint	-1609
▁anx	-1610
▁law	-1611
▁quar	-1612
gr	-1613
▁able	-1614
▁watch	-1615
▁hardly	-1616
If	-1617
▁sleep	-1618
ening	-1619
▁self	-1620
rupt	-1621
▁feet	-1622
▁Dor	-1623
▁creat	-1624
▁ve	-1625
▁bra	-1626
resh	-1627
▁remain	-1628
▁remained	-1629
▁prep	-1630
▁breat	-1631
▁sight	-1632
▁comple	-1633
laimed	-1634
▁thinking	-1635
▁regard	-1636
▁col	-1637
▁effect	-1638
▁leg	-1639
▁equ	-1640
▁contr	-1641
▁lea	-1642
▁cross	-1643
▁gentlemen	-1644
▁immediately	-1645
▁impos	-1646
▁tears	-1647
▁Anne	-1648
sha	-1649
▁Bar	-1650
▁arri	-1651
▁const	-1652
umst	-1653
▁break	-1654
▁lips	-1655
ches	-1656
ement	-1657
▁esc	-1658
▁tone	-1659
!"	-1660
iment	-1661
no	-1662
let	-1663
▁twenty	-1664
▁carriage	-1665
▁until	-1666
▁prison	-1667
▁view	-1668
▁soft	-1669
inal	-1670
ptain	-1671
ply	-1672
ingly	-1673
▁move	-1674
▁thus	-1675
lu	-1676
▁stud	-1677
ollect	-1678
Do	-1679
▁except	-1680
▁tried	-1681
ages	-1682
eng	-1683
▁sk	-1684
▁possess	-1685
▁stopped	-1686
▁turning	-1687
tern	-1688
▁dut	-1689
▁purp	-1690
▁didn	-1691
▁mod	-1692
wh	-1693
orm	-1694
▁dinner	-1695
▁With	-1696
where	-1697
▁sol	-1698
▁Lady	-1699
ounded	-1700
▁fair	-1701
ards	-1702
ug	-1703
▁mem	-1704
▁year	-1705
oss	-1706
▁accom	-1707
bit	-1708
▁blood	-1709
▁import	-1710
▁change	-1711
▁Sam	-1712
aded	-1713
▁sch	-1714
cher	-1715
orry	-1716
▁circumst	-1717
▁kiss	-1718
▁fix	-1719
▁struck	-1720
oint	-1721
There	-1722
▁pock	-1723
▁exist	-1724
▁Not	-1725
▁show	-1726
▁position	-1727
▁feelings	-1728
▁vi	-1729
▁standing	-1730
▁Rus	-1731
uct	-1732
▁exam	-1733
blic	-1734
ices	-1735
▁hours	-1736
▁ladies	-1737
ote	-1738
oly	-1739
▁happiness	-1740
een	-1741
anced	-1742
▁aunt	-1743
▁pen	-1744
▁mine	-1745
ining	-1746
▁during	-1747
ogn	-1748
▁oblig	-1749
ring	-1750
▁talking	-1751
▁ele	-1752
▁free	-1753
▁sold	-1754
▁pale	-1755
▁exclaimed	-1756
▁Monsieur	-1757
▁earth	-1758
▁mention	-1759
▁inn	-1760
▁spirit	-1761
▁Por	-1762
ois	-1763
▁sever	-1764
),	-1765
▁mus	-1766
▁attention	-1767
▁ri	-1768
▁gaz	-1769
▁neither	-1770
ham	-1771
▁pay	-1772
▁prov	-1773
_,	-1774
▁cut	-1775
▁Pe	-1776
▁squ	-1777
▁'	-1778
ship	-1779
▁society	-1780
erm	-1781
▁ann	-1782
▁speaking	-1783
ka	-1784
▁Lev	-1785
▁Is	-1786
▁wis	-1787
▁body	-1788
▁wished	-1789
morrow	-1790
▁silent	-1791
▁late	-1792
▁knows	-1793
▁beautiful	-1794
▁Lu	-1795
lled	-1796
▁fre	-1797
inary	-1798
ously	-1799
▁observed	-1800
▁After	-1801
▁married	-1802
▁Oh	-1803
▁emb	-1804
▁meant	-1805
▁def	-1806
▁Paris	-1807
ceive	-1808
▁dang	-1809
Th	-1810
▁drawing	-1811
▁Jones	-1812
pping	-1813
aged	-1814
field	-1815
usion	-1816
▁drew	-1817
▁dest	-1818
▁hop	-1819
▁wrong	-1820
▁impossible	-1821
iece	-1822
▁Levin	-1823
clock	-1824
▁company	-1825
▁forward	-1826
rance	-1827
▁corner	-1828
▁minute	-1829
▁ce	-1830
▁Ly	-1831
▁glass	-1832
—”	-1833
▁sett	-1834
itation	-1835
erv	-1836
▁bene	-1837
▁complete	-1838
▁Ag	-1839
▁Mon	-1840
▁thoughts	-1841
▁sweet	-1842
▁Stepan	-1843
Not	-1844
arent	-1845
iced	-1846
fied	-1847
▁usual	-1848
▁afterwards	-1849
cell	-1850
lish	-1851
▁trem	-1852
son	-1853
▁warm	-1854
▁street	-1855
▁necessary	-1856
▁crow	-1857
▁Mor	-1858
▁spo	-1859
▁ago	-1860
ghed	-1861
like	-1862
▁grand	-1863
▁learn	-1864
▁living	-1865
sequ	-1866
▁command	-1867
▁fright	-1868
▁purpose	-1869
▁slight	-1870
We	-1871
ighb	-1872
▁enj	-1873
▁sea	-1874
ots	-1875
▁bear	-1876
ms	-1877
rid	-1878
▁Russi	-1879
▁scarce	-1880
▁Will	-1881
ager	-1882
▁sad	-1883
▁pray	-1884
▁doctor	-1885
She	-1886
▁forget	-1887
▁proceed	-1888
pend	-1889
vern	-1890
▁compl	-1891
▁fast	-1892
▁port	-1893
ient	-1894
▁fig	-1895
hil	-1896
▁enc	-1897
▁wait	-1898
cially	-1899
▁reached	-1900
▁jo	-1901
▁cast	-1902
▁De	-1903
▁remark	-1904
▁ed	-1905
bling	-1906
▁Here	-1907
▁shout	-1908
▁Nat	-1909
▁slow	-1910
▁English	-1911
oured	-1912
▁av	-1913
▁common	-1914
▁ast	-1915
spect	-1916
▁enjoy	-1917
▁div	-1918
▁public	-1919
▁carried	-1920
ative	-1921
▁num	-1922
▁bright	-1923
▁danger	-1924
tte	-1925
▁dread	-1926
▁wood	-1927
▁recogn	-1928
▁fing	-1929
▁laid	-1930
▁story	-1931
▁loved	-1932
▁party	-1933
▁instant	-1934
▁repeated	-1935
▁du	-1936
▁waiting	-1937
▁several	-1938
▁seems	-1939
▁Lord	-1940
ased	-1941
▁please	-1942
▁lead	-1943
▁viol	-1944
▁former	-1945
▁expected	-1946
▁front	-1947
▁appearance	-1948
▁entire	-1949
▁getting	-1950
▁heav	-1951
▁laughed	-1952
▁simply	-1953
▁fif	-1954
▁school	-1955
▁spite	-1956
▁crowd	-1957
asp	-1958
oom	-1959
ric	-1960
▁gold	-1961
▁shad	-1962
atherine	-1963
▁cause	-1964
▁gall	-1965
though	-1966
▁bey	-1967
ccess	-1968
▁extre	-1969
▁beyond	-1970
▁dem	-1971
▁exa	-1972
▁fool	-1973
erence	-1974
owers	-1975
ustom	-1976
▁arran	-1977
▁Ed	-1978
▁wild	-1979
▁across	-1980
app	-1981
▁produ	-1982
▁pocket	-1983
▁steps	-1984
▁mil	-1985
bs	-1986
▁Tr	-1987
▁accept	-1988
▁neighb	-1989
tend	-1990
ically	-1991
uff	-1992
▁service	-1993
▁affection	-1994
▁natural	-1995
▁hist	-1996
ries	-1997
▁led	-1998
▁church	-1999
▁Porthos	-2000
▁determ	-2001
▁terrible	-2002
▁lived	-2003
side	-2004
▁Le	-2005
hn	-2006
▁plain	-2007
ality	-2008
▁presence	-2009
▁post	-2010
▁Catherine	-2011
▁fran	-2012
▁instead	-2013
ledge	-2014
▁youth	-2015
▁perfectly	-2016
ines	-2017
pecially	-2018
▁fat	-2019
▁Alexand	-2020
ames	-2021
▁dog	-2022
iddle	-2023
▁di	-2024
ah	-2025
eness	-2026
▁drink	-2027
▁eight	-2028
▁fixed	-2029
▁cry	-2030
▁agree	-2031
▁reply	-2032
▁occup	-2033
▁age	-2034
▁stri	-2035
▁around	-2036
ury	-2037
ency	-2038
▁mut	-2039
▁streng	-2040
▁med	-2041
▁Char	-2042
▁intell	-2043
▁tender	-2044
▁conce	-2045
▁direct	-2046
hood	-2047
▁raised	-2048
▁fortune	-2049
▁arrived	-2050
▁Fran	-2051
dd	-2052
ned	-2053
ified	-2054
▁depart	-2055
▁sorry	-2056
▁placed	-2057
uc	-2058
▁Marius	-2059
▁Let	-2060
▁shut	-2061
ony	-2062
▁vill	-2063
pper	-2064
▁rid	-2065
▁leng	-2066
▁horses	-2067
ching	-2068
▁consequ	-2069
▁difficult	-2070
▁marriage	-2071
▁wit	-2072
▁calm	-2073
▁paper	-2074
▁die	-2075
▁cand	-2076
▁Sc	-2077
▁pleased	-2078
▁desire	-2079
▁rev	-2080
umed	-2081
vere	-2082
▁court	-2083
▁straight	-2084
▁understood	-2085
erg	-2086
mit	-2087
ray	-2088
▁pict	-2089
▁sole	-2090
▁giving	-2091
ats	-2092
ze	-2093
▁Car	-2094
▁bott	-2095
idently	-2096
raw	-2097
▁Lond	-2098
▁passion	-2099
▁tea	-2100
atched	-2101
pid	-2102
ocked	-2103
▁faith	-2104
▁probably	-2105
▁forth	-2106
▁descri	-2107
▁John	-2108
▁worth	-2109
▁London	-2110
▁priv	-2111
▁purs	-2112
▁grave	-2113
▁accord	-2114
alth	-2115
▁fresh	-2116
ize	-2117
▁mouth	-2118
ker	-2119
▁excell	-2120
▁duty	-2121
▁Dr	-2122
ina	-2123
▁success	-2124
▁eas	-2125
▁Every	-2126
▁trouble	-2127
▁glance	-2128
▁laughing	-2129
▁weak	-2130
▁concl	-2131
▁smiled	-2132
ásha	-2133
▁fut	-2134
▁incl	-2135
▁address	-2136
▁beginning	-2137
▁talked	-2138
▁conscious	-2139
ishment	-2140
▁beauty	-2141
▁counten	-2142
▁cre	-2143
▁confess	-2144
lyos	-2145
lan	-2146
lyosha	-2147
▁week	-2148
read	-2149
othe	-2150
▁easy	-2151
mber	-2152
bered	-2153
isted	-2154
▁utter	-2155
head	-2156
▁prot	-2157
▁especially	-2158
▁caught	-2159
▁Sl	-2160
▁conduct	-2161
house	-2162
▁length	-2163
▁card	-2164
retched	-2165
wise	-2166
▁Per	-2167
▁Jean	-2168
▁attempt	-2169
she	-2170
▁try	-2171
terday	-2172
gate	-2173
▁heaven	-2174
▁moved	-2175
how	-2176
Then	-2177
▁Andrew	-2178
▁obliged	-2179
▁honour	-2180
▁chief	-2181
:—	-2182
▁send	-2183
▁eager	-2184
Is	-2185
▁La	-2186
rief	-2187
▁Rue	-2188
▁sens	-2189
▁Alyosha	-2190
▁surprise	-2191
▁smiling	-2192
▁dare	-2193
▁broken	-2194
▁servant	-2195
eg	-2196
appe	-2197
▁months	-2198
▁comes	-2199
pered	-2200
ramis	-2201
▁beha	-2202
▁fancy	-2203
▁peace	-2204
▁Wh	-2205
▁sake	-2206
▁angry	-2207
par	-2208
▁scarcely	-2209
▁future	-2210
▁quickly	-2211
Now	-2212
▁trust	-2213
▁latter	-2214
ism	-2215
▁und	-2216
▁nearly	-2217
sem	-2218
▁uncle	-2219
▁lif	-2220
attle	-2221
▁apart	-2222
ler	-2223
olute	-2224
▁pull	-2225
idered	-2226
▁liked	-2227
pit	-2228
▁none	-2229
otten	-2230
amed	-2231
liver	-2232
▁favour	-2233
▁marry	-2234
▁pleasant	-2235
▁deg	-2236
▁enem	-2237
▁early	-2238
▁girls	-2239
▁eld	-2240
▁van	-2241
▁strength	-2242
ners	-2243
▁Aramis	-2244
▁effort	-2245
▁Natásha	-2246
▁Br	-2247
▁rich	-2248
▁further	-2249
▁beside	-2250
▁Lyd	-2251
▁inquired	-2252
ences	-2253
▁impress	-2254
ape	-2255
aled	-2256
▁blue	-2257
▁disg	-2258
▁quarter	-2259
▁fal	-2260
ission	-2261
▁aston	-2262
▁experi	-2263
▁creature	-2264
▁Mos	-2265
▁var	-2266
acy	-2267
▁trying	-2268
▁breath	-2269
▁countenance	-2270
▁fra	-2271
▁susp	-2272
▁later	-2273
▁wine	-2274
ron	-2275
▁alar	-2276
óv	-2277
▁write	-2278
fast	-2279
▁imm	-2280
▁auth	-2281
▁note	-2282
▁chance	-2283
ishop	-2284
▁These	-2285
▁belong	-2286
▁allow	-2287
ored	-2288
itten	-2289
▁plan	-2290
osition	-2291
▁situ	-2292
ib	-2293
▁extreme	-2294
eks	-2295
▁Col	-2296
▁Hen	-2297
▁lie	-2298
▁listened	-2299
ourage	-2300
▁whatever	-2301
icked	-2302
▁Monte	-2303
now	-2304
▁treat	-2305
ges	-2306
iety	-2307
▁Har	-2308
▁entirely	-2309
inter	-2310
▁third	-2311
▁evidently	-2312
uss	-2313
ested	-2314
▁hot	-2315
▁firm	-2316
▁jour	-2317
▁interrupt	-2318
▁cous	-2319
▁earn	-2320
▁fond	-2321
▁Crist	-2322
▁yesterday	-2323
▁circumstances	-2324
▁closed	-2325
▁reflect	-2326
▁worse	-2327
▁influ	-2328
▁Cristo	-2329
▁handsome	-2330
ford	-2331
iers	-2332
osity	-2333
▁proper	-2334
▁ball	-2335
▁floor	-2336
▁Ville	-2337
▁merely	-2338
cow	-2339
▁grew	-2340
culiar	-2341
▁Count	-2342
▁occur	-2343
▁distance	-2344
▁contrary	-2345
To	-2346
fer	-2347
▁lord	-2348
ph	-2349
irty	-2350
▁eat	-2351
▁mid	-2352
▁pun	-2353
▁peculiar	-2354
come	-2355
▁lab	-2356
▁believed	-2357
law	-2358
jean	-2359
▁officer	-2360
▁delic	-2361
mn	-2362
anny	-2363
ls	-2364
▁Valjean	-2365
urd	-2366
▁Moscow	-2367
formed	-2368
▁advant	-2369
osing	-2370
▁likely	-2371
▁mount	-2372
▁rapid	-2373
oph	-2374
sk	-2375
▁sal	-2376
ues	-2377
▁tor	-2378
chief	-2379
▁demand	-2380
▁notice	-2381
▁princi	-2382
▁Anna	-2383
▁govern	-2384
▁figure	-2385
Mr	-2386
ilt	-2387
arch	-2388
▁...	-2389
cience	-2390
▁extra	-2391
▁force	-2392
arer	-2393
▁val	-2394
▁Rost	-2395
ils	-2396
▁Gra	-2397
ics	-2398
▁neck	-2399
▁hig	-2400
▁honor	-2401
stairs	-2402
▁commun	-2403
▁Villefort	-2404
els	-2405
▁slowly	-2406
mes	-2407
itated	-2408
▁showed	-2409
Come	-2410
▁scene	-2411
▁cent	-2412
▁cheer	-2413
ashion	-2414
▁Alexandrov	-2415
▁anim	-2416
▁makes	-2417
▁Sh	-2418
nect	-2419
ortun	-2420
▁imagine	-2421
teen	-2422
▁nar	-2423
▁trans	-2424
▁Com	-2425
ounds	-2426
▁serious	-2427
inct	-2428
▁author	-2429
cial	-2430
▁peas	-2431
▁pity	-2432
▁satisfa	-2433
▁absolute	-2434
jo	-2435
▁suc	-2436
▁pract	-2437
▁besides	-2438
▁profess	-2439
co	-2440
▁succeed	-2441
▁acquaintance	-2442
▁grat	-2443
▁forgotten	-2444
▁cra	-2445
cs	-2446
lin	-2447
▁“‘	-2448
▁anyone	-2449
In	-2450
oose	-2451
ancing	-2452
▁news	-2453
aching	-2454
This	-2455
▁pati	-2456
ounced	-2457
▁Christ	-2458
▁action	-2459
▁following	-2460
▁simple	-2461
▁captain	-2462
ume	-2463
▁sugg	-2464
▁heavy	-2465
▁top	-2466
light	-2467
▁possi	-2468
rodu	-2469
ishing	-2470
orted	-2471
▁hung	-2472
▁Fanny	-2473
▁fault	-2474
▁queen	-2475
ires	-2476
▁big	-2477
▁spirits	-2478
▁considered	-2479
▁bell	-2480
▁burn	-2481
▁guard	-2482
▁recollect	-2483
▁promise	-2484
itty	-2485
▁den	-2486
▁clot	-2487
▁coat	-2488
well	-2489
ieu	-2490
angu	-2491
▁hid	-2492
▁army	-2493
▁leaving	-2494
▁changed	-2495
▁died	-2496
▁walking	-2497
ub	-2498
▁Jane	-2499
▁bless	-2500
▁anxious	-2501
▁Ben	-2502
look	-2503
▁lod	-2504
▁Slope	-2505
▁francs	-2506
▁dressed	-2507
esty	-2508
▁broke	-2509
▁seat	-2510
▁decided	-2511
▁concern	-2512
elle	-2513
▁Mic	-2514
erable	-2515
iction	-2516
▁burst	-2517
▁fro	-2518
▁green	-2519
▁threw	-2520
bur	-2521
▁Mat	-2522
happ	-2523
▁knowledge	-2524
.--	-2525
▁shook	-2526
▁knowing	-2527
vell	-2528
▁loud	-2529
▁cou	-2530
▁remembered	-2531
▁lean	-2532
▁spot	-2533
▁exactly	-2534
osette	-2535
stone	-2536
▁line	-2537
▁single	-2538
athe	-2539
▁box	-2540
▁Lydgate	-2541
aste	-2542
ardon	-2543
▁shar	-2544
lace	-2545
▁fit	-2546
▁gen	-2547
▁greater	-2548
▁decla	-2549
▁From	-2550
.—	-2551
ivid	-2552
▁written	-2553
kn	-2554
▁By	-2555
onsky	-2556
▁cloud	-2557
▁fun	-2558
▁letters	-2559
con	-2560
tended	-2561
▁suspic	-2562
▁journey	-2563
▁looks	-2564
ains	-2565
rill	-2566
▁easily	-2567
▁stranger	-2568
▁habit	-2569
▁England	-2570
▁important	-2571
ergy	-2572
▁Eli	-2573
▁Of	-2574
▁famil	-2575
oes	-2576
▁ign	-2577
▁particularly	-2578
So	-2579
▁coach	-2580
ech	-2581
▁ta	-2582
ises	-2583
▁Ind	-2584
▁Cosette	-2585
▁opportun	-2586
▁thou	-2587
▁connect	-2588
▁lim	-2589
▁allowed	-2590
▁filled	-2591
nik	-2592
▁paid	-2593
▁breakfast	-2594
▁maid	-2595
▁listen	-2596
▁suffic	-2597
▁surprised	-2598
cise	-2599
▁thank	-2600
▁interv	-2601
▁earnest	-2602
▁admir	-2603
urs	-2604
▁furn	-2605
▁sick	-2606
▁bird	-2607
▁meeting	-2608
▁passing	-2609
▁companion	-2610
▁murm	-2611
▁impro	-2612
▁mistress	-2613
▁questions	-2614
▁Don	-2615
rival	-2616
▁polit	-2617
▁Rostóv	-2618
▁persons	-2619
kins	-2620
leep	-2621
▁Nik	-2622
▁Eliz	-2623
▁host	-2624
▁disapp	-2625
▁mark	-2626
que	-2627
▁enter	-2628
▁lying	-2629
▁Weller	-2630
kes	-2631
unk	-2632
▁stone	-2633
otty	-2634
othea	-2635
▁evil	-2636
▁strugg	-2637
▁introdu	-2638
sy	-2639
▁proud	-2640
erve	-2641
▁noticed	-2642
▁Yes	-2643
▁pri	-2644
▁dism	-2645
▁seven	-2646
▁spoken	-2647
lars	-2648
▁unhapp	-2649
▁disappe	-2650
▁settled	-2651
illa	-2652
ours	-2653
oved	-2654
▁pal	-2655
▁iron	-2656
▁gate	-2657
én	-2658
bin	-2659
▁unp	-2660
▁determined	-2661
▁da	-2662
▁Some	-2663
▁bound	-2664
▁reading	-2665
▁Py	-2666
uous	-2667
nes	-2668
▁Henry	-2669
tic	-2670
▁history	-2671
▁Dorothea	-2672
inced	-2673
Good	-2674
worthy	-2675
▁persu	-2676
▁wouldn	-2677
▁Ma	-2678
▁cru	-2679
▁assist	-2680
▁condition	-2681
▁gloom	-2682
▁incre	-2683
▁sli	-2684
▁stop	-2685
amond	-2686
▁ende	-2687
▁pet	-2688
ature	-2689
▁class	-2690
_.	-2691
▁safe	-2692
▁despair	-2693
bo	-2694
aff	-2695
▁virt	-2696
▁field	-2697
▁covered	-2698
▁aware	-2699
iter	-2700
ploy	-2701
▁Soph	-2702
▁guess	-2703
▁ideas	-2704
add	-2705
gar	-2706
chen	-2707
ether	-2708
▁Fred	-2709
itya	-2710
▁vent	-2711
ians	-2712
with	-2713
▁follow	-2714
ases	-2715
▁coun	-2716
▁meaning	-2717
▁alt	-2718
iver	-2719
▁hang	-2720
anglars	-2721
aud	-2722
They	-2723
vert	-2724
▁Mart	-2725
▁escape	-2726
▁satisfied	-2727
▁inform	-2728
▁started	-2729
▁hath	-2730
▁trees	-2731
▁cousin	-2732
uded	-2733
▁avo	-2734
fortun	-2735
itable	-2736
▁putting	-2737
▁Danglars	-2738
▁dign	-2739
▁separ	-2740
com	-2741
▁kne	-2742
▁langu	-2743
▁attack	-2744
▁hurried	-2745
▁devil	-2746
▁number	-2747
▁directly	-2748
▁whispered	-2749
▁piece	-2750
▁sin	-2751
enced	-2752
▁result	-2753
▁direction	-2754
rud	-2755
▁appre	-2756
▁pride	-2757
▁Petrov	-2758
▁influence	-2759
ex	-2760
▁save	-2761
▁running	-2762
▁sky	-2763
▁intim	-2764
▁hill	-2765
▁id	-2766
▁Joe	-2767
▁Man	-2768
▁Mitya	-2769
▁cardinal	-2770
▁noble	-2771
▁battle	-2772
▁innoc	-2773
itary	-2774
▁orders	-2775
▁Sophia	-2776
upid	-2777
apole	-2778
nikov	-2779
▁spect	-2780
▁impati	-2781
▁accompan	-2782
▁dim	-2783
▁advantage	-2784
▁asleep	-2785
▁inj	-2786
▁sen	-2787
▁matters	-2788
rop	-2789
▁shame	-2790
oted	-2791
▁sorrow	-2792
▁je	-2793
▁learned	-2794
▁couldn	-2795
cer	-2796
abeth	-2797
▁Nikol	-2798
ision	-2799
▁employ	-2800
▁situation	-2801
▁hall	-2802
▁miss	-2803
ests	-2804
...”	-2805
▁Lou	-2806
▁solemn	-2807
ob	-2808
▁maj	-2809
▁Kitty	-2810
▁bitter	-2811
▁inquir	-2812
apoleon	-2813
▁hes	-2814
ashed	-2815
▁offer	-2816
▁speech	-2817
▁temper	-2818
▁nice	-2819
▁por	-2820
▁stir	-2821
itions	-2822
▁Saint	-2823
▁relig	-2824
aining	-2825
▁sword	-2826
▁engaged	-2827
▁touched	-2828
▁Elizabeth	-2829
▁seized	-2830
under	-2831
▁spent	-2832
▁intellig	-2833
▁opportunity	-2834
▁civ	-2835
▁path	-2836
itchen	-2837
▁becom	-2838
▁endeav	-2839
▁communic	-2840
olog	-2841
▁Oliver	-2842
ouses	-2843
▁bread	-2844
ronsky	-2845
▁thick	-2846
otr	-2847
▁wrote	-2848
--“	-2849
▁carry	-2850
▁mill	-2851
iny	-2852
▁rock	-2853
lo	-2854
▁fashion	-2855
▁servants	-2856
▁confidence	-2857
ists	-2858
race	-2859
▁faint	-2860
▁Napoleon	-2861
str	-2862
▁cost	-2863
ushing	-2864
▁Vronsky	-2865
▁beneath	-2866
▁satisfaction	-2867
peror	-2868
▁bent	-2869
▁exec	-2870
▁resp	-2871
▁toward	-2872
▁kitchen	-2873
osite	-2874
▁middle	-2875
▁moments	-2876
▁regret	-2877
ament	-2878
▁Emma	-2879
▁offered	-2880
▁supposed	-2881
▁Ark	-2882
▁grow	-2883
▁Baron	-2884
noon	-2885
ulty	-2886
▁symp	-2887
▁fallen	-2888
bers	-2889
▁kill	-2890
▁super	-2891
▁Russian	-2892
do	-2893
esides	-2894
▁desce	-2895
▁Alexey	-2896
Don	-2897
ives	-2898
▁fle	-2899
▁empt	-2900
▁study	-2901
▁finished	-2902
dy	-2903
riet	-2904
▁holding	-2905
!—	-2906
▁although	-2907
▁darkness	-2908
lend	-2909
▁motion	-2910
▁nobody	-2911
▁dropped	-2912
▁books	-2913
ters	-2914
awber	-2915
erved	-2916
▁honest	-2917
▁rising	-2918
▁hearing	-2919
will	-2920
▁chamber	-2921
▁Ad	-2922
▁rejo	-2923
▁formed	-2924
▁clothes	-2925
▁shoulder	-2926
ogg	-2927
▁assure	-2928
▁distur	-2929
▁er	-2930
▁spring	-2931
▁movement	-2932
▁recall	-2933
▁suffer	-2934
▁Micawber	-2935
▁May	-2936
▁pat	-2937
▁Pyotr	-2938
▁everybody	-2939
▁Mil	-2940
▁noise	-2941
▁justice	-2942
▁curi	-2943
ogether	-2944
▁outside	-2945
▁prisoner	-2946
oline	-2947
▁vain	-2948
▁faces	-2949
▁Marilla	-2950
▁windows	-2951
wo	-2952
known	-2953
▁lose	-2954
▁office	-2955
abl	-2956
▁key	-2957
▁health	-2958
▁frightened	-2959
ift	-2960
cient	-2961
▁thin	-2962
▁extraord	-2963
aub	-2964
onel	-2965
▁difficulty	-2966
hamed	-2967
▁stupid	-2968
ories	-2969
▁touch	-2970
▁arch	-2971
▁expressed	-2972
▁affair	-2973
▁terror	-2974
net	-2975
set	-2976
▁rou	-2977
▁killed	-2978
▁opposite	-2979
las	-2980
oves	-2981
▁enemy	-2982
▁thy	-2983
ption	-2984
▁legs	-2985
▁promised	-2986
ples	-2987
▁fly	-2988
▁scre	-2989
▁Lucy	-2990
onsense	-2991
oup	-2992
oman	-2993
emois	-2994
▁bank	-2995
▁yours	-2996
▁ashamed	-2997
▁prepared	-2998
nat	-2999
▁Mad	-3000
▁tall	-3001
▁quietly	-3002
▁false	-3003
▁suspect	-3004
▁afternoon	-3005
▁obt	-3006
▁Gill	-3007
▁myster	-3008
alous	-3009
▁wide	-3010
▁blind	-3011
▁receive	-3012
ience	-3013
▁Arkady	-3014
▁cho	-3015
▁ring	-3016
▁press	-3017
▁convinced	-3018
▁curiosity	-3019
▁shoulders	-3020
iant	-3021
▁Ros	-3022
inite	-3023
▁mass	-3024
▁cries	-3025
▁taste	-3026
▁degree	-3027
▁unhappy	-3028
gel	-3029
▁Prin	-3030
▁France	-3031
▁passage	-3032
▁witness	-3033
▁somewhat	-3034
emoiselle	-3035
bre	-3036
▁libert	-3037
▁shouted	-3038
ops	-3039
▁waited	-3040
olly	-3041
▁ver	-3042
▁elder	-3043
▁uttered	-3044
▁resolved	-3045
▁shadow	-3046
▁Caroline	-3047
▁appl	-3048
▁thee	-3049
▁begun	-3050
▁charming	-3051
kin	-3052
bility	-3053
▁attend	-3054
▁generally	-3055
▁mentioned	-3056
▁agreeable	-3057
orough	-3058
▁repro	-3059
▁Albert	-3060
▁private	-3061
▁Ca	-3062
Very	-3063
▁watched	-3064
vey	-3065
burg	-3066
▁ben	-3067
ggotty	-3068
▁seated	-3069
elve	-3070
▁village	-3071
askol	-3072
▁judge	-3073
askolnikov	-3074
▁Father	-3075
▁picture	-3076
▁dreadful	-3077
ear	-3078
tering	-3079
▁breast	-3080
▁triump	-3081
zz	-3082
▁ris	-3083
▁Dant	-3084
perior	-3085
▁apparent	-3086
Who	-3087
▁ears	-3088
▁fight	-3089
▁princess	-3090
▁fingers	-3091
▁telling	-3092
▁greatest	-3093
ingu	-3094
▁mir	-3095
▁memory	-3096
▁inde	-3097
▁drawn	-3098
▁rushed	-3099
▁Raskolnikov	-3100
▁aud	-3101
arily	-3102
▁fart	-3103
▁worthy	-3104
▁neg	-3105
▁meas	-3106
▁flowers	-3107
▁ph	-3108
▁forgive	-3109
▁irr	-3110
iments	-3111
▁Peggotty	-3112
arted	-3113
▁Princess	-3114
▁instantly	-3115
ague	-3116
evitch	-3117
▁discuss	-3118
▁tong	-3119
▁indiff	-3120
▁interrupted	-3121
ior	-3122
▁ignor	-3123
▁whisper	-3124
Here	-3125
▁Morrel	-3126
▁opening	-3127
▁writing	-3128
▁below	-3129
▁events	-3130
▁ourselves	-3131
▁Co	-3132
▁contempt	-3133
▁vol	-3134
▁affairs	-3135
▁altogether	-3136
Let	-3137
▁phy	-3138
erous	-3139
▁Emperor	-3140
▁completely	-3141
▁pardon	-3142
▁Come	-3143
▁mort	-3144
▁frequ	-3145
▁disappoint	-3146
▁ur	-3147
▁agre	-3148
▁mess	-3149
▁reader	-3150
▁extraordinary	-3151
hel	-3152
▁Ha	-3153
▁defe	-3154
▁recom	-3155
▁Ivanovna	-3156
▁’	-3157
zen	-3158
▁unf	-3159
Where	-3160
▁moon	-3161
▁delighted	-3162
ital	-3163
▁cat	-3164
▁distingu	-3165
▁impression	-3166
gged	-3167
▁Nor	-3168
arked	-3169
oland	-3170
which	-3171
▁vict	-3172
▁greatly	-3173
idge	-3174
ulous	-3175
▁approached	-3176
▁Gu	-3177
evol	-3178
reet	-3179
▁observ	-3180
orne	-3181
▁nose	-3182
racted	-3183
▁excellent	-3184
▁Such	-3185
▁beat	-3186
▁twelve	-3187
ument	-3188
▁forced	-3189
erted	-3190
aped	-3191
ella	-3192
▁arg	-3193
acher	-3194
▁unex	-3195
▁equal	-3196
▁existence	-3197
gin	-3198
▁Sp	-3199
atic	-3200
▁Peters	-3201
▁propert	-3202
ails	-3203
▁lower	-3204
▁bare	-3205
▁educ	-3206
▁orig	-3207
▁music	-3208
▁listening	-3209
▁presented	-3210
lay	-3211
Your	-3212
▁ones	-3213
▁Where	-3214
▁Fogg	-3215
▁grace	-3216
oned	-3217
▁bab	-3218
▁smo	-3219
▁splend	-3220
▁soldiers	-3221
▁suffering	-3222
▁Edm	-3223
▁sooner	-3224
▁rooms	-3225
▁police	-3226
▁explain	-3227
▁Wil	-3228
▁advice	-3229
▁instance	-3230
dom	-3231
umble	-3232
▁fifty	-3233
▁kissed	-3234
olas	-3235
▁tired	-3236
▁liberty	-3237
▁absolutely	-3238
▁discovered	-3239
road	-3240
▁arrival	-3241
▁everyone	-3242
▁arrange	-3243
▁resumed	-3244
ify	-3245
▁custom	-3246
▁decl	-3247
▁wretched	-3248
▁Petersburg	-3249
▁cler	-3250
▁perm	-3251
▁summer	-3252
▁occurred	-3253
▁perceived	-3254
athy	-3255
▁thrown	-3256
uge	-3257
▁Archer	-3258
▁candle	-3259
using	-3260
▁hide	-3261
▁lives	-3262
▁trembling	-3263
▁farther	-3264
▁cheerful	-3265
iod	-3266
istol	-3267
▁Your	-3268
▁broad	-3269
▁narrow	-3270
▁Besides	-3271
▁collect	-3272
▁courage	-3273
▁superior	-3274
▁proceeded	-3275
usted	-3276
▁phil	-3277
eor	-3278
▁Who	-3279
▁gazed	-3280
▁property	-3281
inkle	-3282
▁twice	-3283
▁streets	-3284
there	-3285
▁wear	-3286
▁revol	-3287
▁Milady	-3288
▁familiar	-3289
▁according	-3290
....”	-3291
▁clever	-3292
▁consequence	-3293
rof	-3294
▁pure	-3295
▁stairs	-3296
rect	-3297
▁rain	-3298
▁wand	-3299
▁relations	-3300
▁conscience	-3301
▁haste	-3302
▁Doctor	-3303
▁glanced	-3304
ruct	-3305
▁coll	-3306
▁curt	-3307
▁blame	-3308
▁sharp	-3309
▁period	-3310
ara	-3311
▁Hol	-3312
▁dom	-3313
▁sofa	-3314
▁surr	-3315
▁asking	-3316
▁Captain	-3317
yer	-3318
▁coff	-3319
▁fold	-3320
pected	-3321
▁walls	-3322
odor	-3323
▁pac	-3324
eping	-3325
▁excited	-3326
▁prevent	-3327
rode	-3328
▁snow	-3329
▁happen	-3330
avl	-3331
ays	-3332
quet	-3333
sec	-3334
vent	-3335
arest	-3336
linor	-3337
▁avoid	-3338
cies	-3339
▁mot	-3340
ospit	-3341
yodor	-3342
▁catch	-3343
▁However	-3344
▁finding	-3345
▁watching	-3346
hest	-3347
▁threat	-3348
▁gun	-3349
▁unless	-3350
▁keeping	-3351
On	-3352
go	-3353
ueen	-3354
▁kindness	-3355
▁thorough	-3356
▁freed	-3357
▁bishop	-3358
▁cab	-3359
▁yell	-3360
▁doors	-3361
▁depend	-3362
▁Perhaps	-3363
hand	-3364
▁knees	-3365
▁sacri	-3366
▁houses	-3367
▁prefer	-3368
▁individ	-3369
oche	-3370
wood	-3371
▁Meg	-3372
▁Elinor	-3373
▁Bert	-3374
▁wore	-3375
ception	-3376
▁Fyodor	-3377
▁engage	-3378
▁wounded	-3379
▁Ara	-3380
▁thro	-3381
▁artic	-3382
▁reach	-3383
▁ordered	-3384
igned	-3385
eer	-3386
illy	-3387
▁paused	-3388
kerchief	-3389
ike	-3390
uted	-3391
▁Liz	-3392
▁establ	-3393
▁explan	-3394
▁Charles	-3395
▁presently	-3396
gment	-3397
▁blow	-3398
▁reve	-3399
▁indign	-3400
▁New	-3401
▁drove	-3402
▁share	-3403
asc	-3404
▁Yet	-3405
▁amaz	-3406
▁aside	-3407
▁bowed	-3408
▁posit	-3409
▁pistol	-3410
▁station	-3411
▁monsieur	-3412
▁Cas	-3413
▁Pavl	-3414
▁undert	-3415
▁entertain	-3416
▁succeeded	-3417
▁tro	-3418
atures	-3419
▁build	-3420
▁Nast	-3421
▁boys	-3422
▁dull	-3423
▁jump	-3424
▁hopes	-3425
▁horri	-3426
▁protect	-3427
▁neighbour	-3428
▁experience	-3429
vi	-3430
—“	-3431
▁Re	-3432
icholas	-3433
▁intended	-3434
▁Bl	-3435
▁Can	-3436
▁fever	-3437
ceiving	-3438
▁madame	-3439
▁hoped	-3440
ability	-3441
▁laughter	-3442
ped	-3443
▁due	-3444
▁proc	-3445
▁remarked	-3446
▁extremely	-3447
entine	-3448
▁occupied	-3449
llen	-3450
▁fet	-3451
looking	-3452
▁unfortun	-3453
ya	-3454
ding	-3455
▁Only	-3456
gers	-3457
stand	-3458
▁grown	-3459
▁Roland	-3460
▁muttered	-3461
▁intention	-3462
key	-3463
lean	-3464
▁luck	-3465
▁event	-3466
▁landl	-3467
while	-3468
▁repres	-3469
▁otherwise	-3470
▁.	-3471
▁proof	-3472
▁unable	-3473
▁personal	-3474
▁miserable	-3475
aked	-3476
▁betray	-3477
▁produced	-3478
▁addressed	-3479
uls	-3480
▁city	-3481
▁fate	-3482
▁horror	-3483
▁tongue	-3484
▁anybody	-3485
▁regular	-3486
▁special	-3487
▁Allworthy	-3488
▁difference	-3489
azar	-3490
rate	-3491
▁harm	-3492
▁anger	-3493
▁individual	-3494
oore	-3495
▁Louis	-3496
▁alive	-3497
▁accompl	-3498
▁hint	-3499
▁favor	-3500
▁thirty	-3501
▁conceal	-3502
▁empty	-3503
▁mater	-3504
▁hy	-3505
▁Amy	-3506
asons	-3507
▁cruel	-3508
▁madam	-3509
▁miles	-3510
aubon	-3511
isher	-3512
choly	-3513
▁destro	-3514
▁winter	-3515
?—	-3516
St	-3517
▁isn	-3518
lection	-3519
▁finger	-3520
ades	-3521
ridge	-3522
▁sigh	-3523
▁advanced	-3524
▁carefully	-3525
▁resem	-3526
▁crying	-3527
▁disappeared	-3528
▁cott	-3529
▁wishes	-3530
▁pointed	-3531
▁declared	-3532
cil	-3533
▁melan	-3534
▁unknown	-3535
▁Nicholas	-3536
▁acquainted	-3537
lly	-3538
▁mal	-3539
▁rare	-3540
▁grief	-3541
▁heads	-3542
▁Tom	-3543
gress	-3544
▁boat	-3545
▁game	-3546
▁loss	-3547
▁While	-3548
▁insult	-3549
▁Casaubon	-3550
▁teeth	-3551
▁attent	-3552
▁jealous	-3553
cked	-3554
▁sla	-3555
▁comb	-3556
▁Heaven	-3557
▁remind	-3558
▁mistake	-3559
▁soldier	-3560
▁mistaken	-3561
▁Ger	-3562
▁weather	-3563
end	-3564
▁withd	-3565
▁Holmes	-3566
▁bottom	-3567
▁sacrif	-3568
▁melancholy	-3569
min	-3570
▁curious	-3571
hin	-3572
▁flat	-3573
▁obey	-3574
▁absence	-3575
ait	-3576
▁Geor	-3577
▁nonsense	-3578
▁compre	-3579
▁appoint	-3580
▁Ah	-3581
▁Ro	-3582
coat	-3583
▁nine	-3584
▁Roche	-3585
▁drive	-3586
▁understanding	-3587
arr	-3588
pet	-3589
asse	-3590
aming	-3591
▁Craw	-3592
▁hate	-3593
▁wond	-3594
▁stern	-3595
▁social	-3596
▁support	-3597
▁Var	-3598
▁travell	-3599
▁possibly	-3600
▁obst	-3601
▁dignity	-3602
▁entrance	-3603
▁suffered	-3604
▁pulled	-3605
▁Sm	-3606
▁cred	-3607
▁tree	-3608
▁civil	-3609
▁wonderful	-3610
▁unexpected	-3611
iles	-3612
▁ease	-3613
▁pill	-3614
▁nearer	-3615
▁shaking	-3616
▁violent	-3617
▁Crawford	-3618
▁Am	-3619
chan	-3620
mend	-3621
▁clo	-3622
▁spread	-3623
▁emotion	-3624
▁Alexandrovitch	-3625
hant	-3626
irst	-3627
▁pit	-3628
iable	-3629
▁goes	-3630
▁phys	-3631
▁dying	-3632
▁train	-3633
▁Church	-3634
▁parent	-3635
wed	-3636
▁Beau	-3637
▁reck	-3638
▁drunk	-3639
▁played	-3640
▁bow	-3641
ivers	-3642
▁excit	-3643
▁crim	-3644
▁Even	-3645
▁shop	-3646
For	-3647
▁Laur	-3648
▁bore	-3649
▁agreed	-3650
▁moving	-3651
▁language	-3652
▁features	-3653
▁murmured	-3654
▁interesting	-3655
▁Just	-3656
▁places	-3657
▁anxiety	-3658
▁pi	-3659
▁Cre	-3660
▁exer	-3661
▁pra	-3662
▁rob	-3663
worth	-3664
▁Valentine	-3665
▁government	-3666
▁sty	-3667
cknow	-3668
▁bold	-3669
▁pause	-3670
▁imagination	-3671
▁wel	-3672
this	-3673
▁claim	-3674
ourable	-3675
▁freedom	-3676
sky	-3677
▁wid	-3678
▁pack	-3679
▁seek	-3680
▁clean	-3681
▁acknow	-3682
▁clearly	-3683
▁tal	-3684
▁Though	-3685
▁ceased	-3686
▁excuse	-3687
▁report	-3688
▁served	-3689
▁forehead	-3690
▁Bon	-3691
As	-3692
case	-3693
▁Dick	-3694
▁doesn	-3695
▁papers	-3696
pri	-3697
keep	-3698
▁suit	-3699
▁pressed	-3700
▁mysterious	-3701
▁hurt	-3702
▁rise	-3703
▁sides	-3704
▁various	-3705
▁apartment	-3706
act	-3707
hal	-3708
aunt	-3709
ville	-3710
▁cart	-3711
▁indul	-3712
▁wants	-3713
▁assured	-3714
hold	-3715
izing	-3716
▁pron	-3717
▁charge	-3718
onscious	-3719
▁capable	-3720
▁growing	-3721
▁manners	-3722
▁fo	-3723
amma	-3724
▁gro	-3725
acity	-3726
▁stro	-3727
▁distin	-3728
▁restra	-3729
▁ty	-3730
icated	-3731
▁aband	-3732
▁importance	-3733
All	-3734
aly	-3735
ium	-3736
ket	-3737
▁Yor	-3738
leanor	-3739
▁caused	-3740
kind	-3741
azarin	-3742
▁admit	-3743
▁forest	-3744
ips	-3745
▁Moore	-3746
▁fully	-3747
▁Winkle	-3748
▁murder	-3749
▁actually	-3750
hens	-3751
▁mag	-3752
▁gest	-3753
▁misery	-3754
▁severe	-3755
▁desired	-3756
▁minister	-3757
▁Ivanovitch	-3758
▁“_	-3759
▁Bro	-3760
▁grad	-3761
▁murd	-3762
▁weeks	-3763
▁hither	-3764
▁interp	-3765
▁peasant	-3766
▁upstairs	-3767
kh	-3768
Have	-3769
▁possessed	-3770
ta	-3771
▁Cad	-3772
▁pair	-3773
▁deeply	-3774
▁Nikolay	-3775
▁odd	-3776
▁busy	-3777
▁rend	-3778
▁roof	-3779
▁crime	-3780
▁calling	-3781
pted	-3782
▁Mazarin	-3783
▁countess	-3784
zy	-3785
avro	-3786
part	-3787
▁ban	-3788
▁West	-3789
ateful	-3790
ustomed	-3791
Are	-3792
ounce	-3793
▁lovely	-3794
och	-3795
When	-3796
▁yield	-3797
▁Laurie	-3798
Of	-3799
iana	-3800
lling	-3801
énard	-3802
▁band	-3803
▁aloud	-3804
▁sought	-3805
▁profound	-3806
▁moral	-3807
▁worst	-3808
▁profession	-3809
▁frown	-3810
▁hurry	-3811
▁Eleanor	-3812
▁hastily	-3813
▁required	-3814
acon	-3815
▁Somet	-3816
▁midst	-3817
ns	-3818
arse	-3819
▁mat	-3820
▁vague	-3821
▁interested	-3822
▁fail	-3823
▁stair	-3824
▁evident	-3825
▁someone	-3826
pse	-3827
▁ruin	-3828
▁higher	-3829
utor	-3830
▁clergy	-3831
▁Thénard	-3832
▁retreat	-3833
acle	-3834
▁page	-3835
▁German	-3836
▁excitement	-3837
quis	-3838
▁forty	-3839
▁Wilkins	-3840
▁friendship	-3841
asped	-3842
▁cord	-3843
▁born	-3844
▁lear	-3845
▁ended	-3846
▁entreat	-3847
▁information	-3848
ulst	-3849
▁aim	-3850
velop	-3851
▁brow	-3852
▁pie	-3853
▁Franz	-3854
▁philos	-3855
▁explained	-3856
▁naturally	-3857
▁delightful	-3858
▁Mademoiselle	-3859
ancy	-3860
▁shown	-3861
▁double	-3862
▁Nothing	-3863
▁excl	-3864
▁star	-3865
▁roubles	-3866
zed	-3867
chant	-3868
iding	-3869
▁terms	-3870
ulstrode	-3871
▁ordinary	-3872
▁handkerchief	-3873
▁consciousness	-3874
▁gle	-3875
▁river	-3876
▁innocent	-3877
▁possession	-3878
.'	-3879
▁prove	-3880
▁afford	-3881
▁couple	-3882
▁lifted	-3883
uses	-3884
▁vex	-3885
forth	-3886
▁bran	-3887
▁throw	-3888
▁uncom	-3889
▁height	-3890
▁thrust	-3891
▁bir	-3892
▁wise	-3893
▁imagined	-3894
▁reflection	-3895
they	-3896
▁nerv	-3897
▁supper	-3898
▁voices	-3899
▁lighted	-3900
ianne	-3901
▁parl	-3902
theless	-3903
▁hospit	-3904
▁contem	-3905
▁crossed	-3906
▁destroy	-3907
▁departure	-3908
uit	-3909
▁smoke	-3910
▁space	-3911
▁stick	-3912
▁retired	-3913
▁Rosamond	-3914
▁Bulstrode	-3915
▁fla	-3916
lessly	-3917
▁Master	-3918
▁pounds	-3919
▁goodness	-3920
▁splendid	-3921
▁sufficient	-3922
----	-3923
▁diss	-3924
▁lock	-3925
irm	-3926
ighed	-3927
▁Buck	-3928
▁amuse	-3929
▁saved	-3930
▁sisters	-3931
ER	-3932
rees	-3933
arding	-3934
▁falling	-3935
▁distress	-3936
ux	-3937
rang	-3938
ourse	-3939
▁flew	-3940
▁sail	-3941
umb	-3942
ilty	-3943
▁delay	-3944
▁grass	-3945
▁Harriet	-3946
rap	-3947
osom	-3948
▁cool	-3949
▁Marianne	-3950
iven	-3951
▁dry	-3952
▁shud	-3953
eneral	-3954
ivered	-3955
▁Having	-3956
▁rum	-3957
▁silver	-3958
▁painful	-3959
▁wed	-3960
▁Good	-3961
▁ways	-3962
ator	-3963
▁trif	-3964
▁distant	-3965
aval	-3966
erer	-3967
antic	-3968
▁Sund	-3969
▁arrest	-3970
ts	-3971
▁nur	-3972
▁uns	-3973
iture	-3974
▁brief	-3975
▁arranged	-3976
▁invol	-3977
ertainly	-3978
▁returning	-3979
▁myst	-3980
▁playing	-3981
was	-3982
zov	-3983
▁dust	-3984
ulated	-3985
▁Mus	-3986
▁yellow	-3987
▁visible	-3988
▁addressing	-3989
▁Arkadyevitch	-3990
▁consideration	-3991
wing	-3992
▁poet	-3993
▁bosom	-3994
▁virtue	-3995
▁usually	-3996
▁necessity	-3997
Go	-3998
▁cell	-3999
▁brill	-4000
▁desir	-4001
▁consent	-4002
▁reasons	-4003
▁accident	-4004
▁informed	-4005
▁sensible	-4006
▁dam	-4007
▁hero	-4008
▁pick	-4009
▁stock	-4010
▁forgot	-4011
▁proved	-4012
▁discover	-4013
▁Did	-4014
▁bon	-4015
▁gar	-4016
▁explanation	-4017
▁circumstance	-4018
rand	-4019
place	-4020
▁lies	-4021
▁style	-4022
▁regarded	-4023
just	-4024
▁dared	-4025
▁waist	-4026
▁leaves	-4027
oused	-4028
▁gray	-4029
▁hers	-4030
▁gently	-4031
▁softly	-4032
▁Or	-4033
▁cook	-4034
▁fanci	-4035
▁alarm	-4036
▁highly	-4037
▁resist	-4038
▁Petrovna	-4039
▁authority	-4040
▁comfortable	-4041
▁unconscious	-4042
itz	-4043
astic	-4044
bbing	-4045
▁vast	-4046
▁gloomy	-4047
who	-4048
▁Pro	-4049
▁group	-4050
▁fancied	-4051
▁accustomed	-4052
▁absurd	-4053
▁refuse	-4054
▁refused	-4055
▁pop	-4056
▁Thus	-4057
▁desper	-4058
▁exchan	-4059
▁burning	-4060
▁ship	-4061
▁utmost	-4062
▁delicate	-4063
pir	-4064
▁bew	-4065
omp	-4066
pon	-4067
▁Was	-4068
▁rough	-4069
▁Copper	-4070
▁prospect	-4071
▁companions	-4072
▁Kut	-4073
▁magn	-4074
▁demanded	-4075
▁recognized	-4076
hank	-4077
mony	-4078
▁gay	-4079
▁lot	-4080
iance	-4081
▁timid	-4082
Did	-4083
ili	-4084
addles	-4085
▁cheeks	-4086
▁confusion	-4087
▁education	-4088
▁Ne	-4089
held	-4090
▁cup	-4091
▁wicked	-4092
▁observe	-4093
▁reality	-4094
roo	-4095
sov	-4096
rank	-4097
▁foolish	-4098
▁evidence	-4099
▁gratitude	-4100
▁mix	-4101
▁wet	-4102
▁bill	-4103
▁colour	-4104
▁singular	-4105
iot	-4106
irley	-4107
▁Have	-4108
inking	-4109
▁equally	-4110
▁friendly	-4111
▁Thénardier	-4112
▁ant	-4113
▁ves	-4114
▁cover	-4115
▁names	-4116
▁suggest	-4117
▁nodd	-4118
▁George	-4119
▁phr	-4120
▁chest	-4121
▁cloak	-4122
▁guilty	-4123
▁working	-4124
▁tomorrow	-4125
▁thoroughly	-4126
▁astonishment	-4127
akov	-4128
▁Rog	-4129
anted	-4130
▁Never	-4131
▁Their	-4132
▁officers	-4133
▁suspicion	-4134
At	-4135
▁fier	-4136
▁match	-4137
▁value	-4138
▁Street	-4139
▁useful	-4140
ien	-4141
rim	-4142
▁der	-4143
▁angel	-4144
▁advent	-4145
▁progress	-4146
eff	-4147
ulf	-4148
▁song	-4149
▁James	-4150
▁depth	-4151
aul	-4152
isc	-4153
▁stat	-4154
▁relation	-4155
low	-4156
▁Thom	-4157
▁mour	-4158
▁lines	-4159
▁rapidly	-4160
agger	-4161
cliff	-4162
imovitch	-4163
ilar	-4164
▁Grim	-4165
▁Mill	-4166
▁Trof	-4167
▁worn	-4168
estern	-4169
▁Trofimovitch	-4170
▁Cour	-4171
▁baby	-4172
▁abroad	-4173
▁immense	-4174
▁apparently	-4175
Ind	-4176
▁camp	-4177
▁food	-4178
▁today	-4179
▁contri	-4180
▁Stepanovitch	-4181
.,	-4182
assion	-4183
ensive	-4184
▁boots	-4185
▁kindly	-4186
▁example	-4187
▁Copperfield	-4188
▁ep	-4189
▁tum	-4190
▁points	-4191
▁priest	-4192
▁independ	-4193
arrass	-4194
▁temp	-4195
isb	-4196
▁Den	-4197
ollow	-4198
retch	-4199
▁Varv	-4200
▁speed	-4201
▁begged	-4202
▁credit	-4203
▁leaning	-4204
hall	-4205
▁Ser	-4206
▁Dora	-4207
▁annoy	-4208
▁haven	-4209
▁shape	-4210
▁condem	-4211
▁fortun	-4212
▁vessel	-4213
▁fifteen	-4214
▁judgment	-4215
xim	-4216
▁spend	-4217
▁encoun	-4218
asm	-4219
▁Wood	-4220
▁devoted	-4221
aker	-4222
▁disag	-4223
▁relie	-4224
▁stared	-4225
▁capital	-4226
▁instinct	-4227
ailed	-4228
▁ridic	-4229
▁aspect	-4230
▁joined	-4231
▁repeat	-4232
▁Had	-4233
▁Jen	-4234
▁Part	-4235
▁shot	-4236
▁storm	-4237
▁Shirley	-4238
▁carrying	-4239
▁gradually	-4240
,'	-4241
▁et	-4242
▁Bor	-4243
▁elb	-4244
acles	-4245
▁fill	-4246
▁clerk	-4247
▁assistance	-4248
iest	-4249
uish	-4250
▁remarkable	-4251
bye	-4252
▁Abb	-4253
▁Phil	-4254
▁Diana	-4255
▁shock	-4256
▁dangerous	-4257
▁continually	-4258
otte	-4259
ustri	-4260
▁qual	-4261
▁tort	-4262
▁lover	-4263
▁weight	-4264
▁highest	-4265
▁sincere	-4266
▁material	-4267
▁ess	-4268
ental	-4269
▁knock	-4270
▁truly	-4271
▁Brooke	-4272
▁tranqu	-4273
▁Varvara	-4274
▁Traddles	-4275
▁admiration	-4276
▁conviction	-4277
gan	-4278
chet	-4279
play	-4280
▁imper	-4281
lict	-4282
rose	-4283
▁reb	-4284
estic	-4285
▁choose	-4286
▁bringing	-4287
▁concluded	-4288
▁amid	-4289
▁maint	-4290
▁suggested	-4291
▁resolution	-4292
▁unfortunate	-4293
nya	-4294
▁indu	-4295
▁irre	-4296
▁becoming	-4297
iatt	-4298
▁Jew	-4299
▁aid	-4300
▁vig	-4301
▁cere	-4302
▁enth	-4303
▁brain	-4304
▁request	-4305
▁accepted	-4306
▁ho	-4307
laya	-4308
▁bag	-4309
▁choice	-4310
▁sympathy	-4311
▁embarrass	-4312
▁intelligence	-4313
uing	-4314
▁exha	-4315
ruction	-4316
▁sentiment	-4317
isp	-4318
plic	-4319
▁rom	-4320
▁Beth	-4321
▁Sunday	-4322
▁feared	-4323
sed	-4324
▁drop	-4325
keeper	-4326
▁benef	-4327
▁brown	-4328
▁pushed	-4329
▁announced	-4330
▁King	-4331
▁yard	-4332
▁cheek	-4333
▁exceed	-4334
▁ancient	-4335
▁contempl	-4336
▁wondered	-4337
▁somewhere	-4338
▁env	-4339
▁awful	-4340
▁needed	-4341
aughters	-4342
▁Gilliatt	-4343
▁concealed	-4344
▁approaching	-4345
orse	-4346
▁eleg	-4347
▁Russia	-4348
gs	-4349
▁Hul	-4350
▁obsc	-4351
▁rate	-4352
isbeth	-4353
ral	-4354
host	-4355
▁gives	-4356
▁whist	-4357
▁flight	-4358
▁eagerly	-4359
▁struggle	-4360
ette	-4361
▁board	-4362
▁spare	-4363
▁religion	-4364
▁daughters	-4365
af	-4366
iam	-4367
ldom	-4368
ester	-4369
▁inha	-4370
athered	-4371
▁nurse	-4372
▁Knight	-4373
▁manage	-4374
Monsieur	-4375
Per	-4376
iently	-4377
tending	-4378
▁hearts	-4379
▁accompanied	-4380
▁fru	-4381
osure	-4382
▁thanks	-4383
▁quarrel	-4384
ification	-4385
▁considerable	-4386
▁Dmit	-4387
▁debt	-4388
▁spark	-4389
▁wound	-4390
▁uneasy	-4391
athcliff	-4392
▁pursued	-4393
▁affected	-4394
gl	-4395
▁ming	-4396
▁circle	-4397
▁Mi	-4398
urope	-4399
▁bottle	-4400
▁whenever	-4401
▁intellect	-4402
usi	-4403
▁Ja	-4404
▁Two	-4405
▁hunt	-4406
▁Thomas	-4407
▁visitor	-4408
▁regiment	-4409
▁Bet	-4410
▁glim	-4411
ouring	-4412
▁treas	-4413
▁worked	-4414
▁grie	-4415
▁prec	-4416
▁throat	-4417
▁Our	-4418
viour	-4419
Indeed	-4420
▁toler	-4421
▁Lisbeth	-4422
▁appears	-4423
▁consult	-4424
▁attitude	-4425
rent	-4426
verse	-4427
▁Hall	-4428
▁Look	-4429
▁Aglaya	-4430
▁failed	-4431
▁relief	-4432
▁plainly	-4433
▁dressing	-4434
uel	-4435
▁rode	-4436
▁search	-4437
▁admitted	-4438
▁horrible	-4439
bid	-4440
off	-4441
▁pin	-4442
▁inex	-4443
▁task	-4444
icious	-4445
▁Europe	-4446
▁Pavlovitch	-4447
arl	-4448
▁pup	-4449
▁wasn	-4450
▁baron	-4451
▁birth	-4452
▁thinks	-4453
▁escaped	-4454
▁recovered	-4455
acc	-4456
isten	-4457
oring	-4458
▁attach	-4459
▁dining	-4460
▁triumph	-4461
▁younger	-4462
,--	-4463
▁Dar	-4464
ading	-4465
▁hidden	-4466
▁seldom	-4467
▁advance	-4468
▁content	-4469
▁entering	-4470
!--	-4471
ald	-4472
▁Un	-4473
▁ble	-4474
▁obv	-4475
▁useless	-4476
▁confused	-4477
▁pointing	-4478
▁proposed	-4479
▁staircase	-4480
ially	-4481
▁design	-4482
▁gained	-4483
▁princip	-4484
II	-4485
oci	-4486
ieux	-4487
▁ing	-4488
inated	-4489
▁Hulot	-4490
▁consol	-4491
▁preced	-4492
▁removed	-4493
▁unpleas	-4494
▁Heathcliff	-4495
▁disposition	-4496
asya	-4497
ulse	-4498
▁facts	-4499
▁dreams	-4500
▁inside	-4501
▁settle	-4502
▁Are	-4503
▁March	-4504
▁conqu	-4505
▁stage	-4506
▁amount	-4507
▁sprang	-4508
▁leading	-4509
▁serve	-4510
▁enthusi	-4511
▁previous	-4512
▁Christian	-4513
orous	-4514
▁Crevel	-4515
▁approach	-4516
▁astonished	-4517
▁Tell	-4518
▁caut	-4519
▁rage	-4520
inence	-4521
inging	-4522
▁slept	-4523
▁surely	-4524
▁setting	-4525
▁showing	-4526
▁Dou	-4527
▁pieces	-4528
hum	-4529
▁fem	-4530
▁Shat	-4531
▁dance	-4532
▁agitation	-4533
▁awa	-4534
▁gaze	-4535
▁tend	-4536
▁frame	-4537
▁penet	-4538
▁excess	-4539
▁gazing	-4540
▁taught	-4541
▁precise	-4542
▁welcome	-4543
▁comprehe	-4544
uments	-4545
▁marked	-4546
▁disposed	-4547
▁reflected	-4548
sey	-4549
▁bridge	-4550
▁behaviour	-4551
khov	-4552
▁takes	-4553
▁nervous	-4554
▁precious	-4555
▁increased	-4556
ski	-4557
ural	-4558
▁Mer	-4559
rated	-4560
▁paint	-4561
ational	-4562
▁Mother	-4563
▁gathered	-4564
ónya	-4565
▁Andre	-4566
▁absor	-4567
▁crown	-4568
fortune	-4569
▁Indeed	-4570
ais	-4571
▁lately	-4572
▁Alexandrovna	-4573
asia	-4574
bbed	-4575
ites	-4576
stem	-4577
▁mood	-4578
▁inclined	-4579
▁engagement	-4580
olk	-4581
▁chat	-4582
▁chim	-4583
▁clock	-4584
aterina	-4585
▁contro	-4586
▁finally	-4587
▁grateful	-4588
oop	-4589
atory	-4590
▁meth	-4591
▁assem	-4592
▁Javert	-4593
▁wedding	-4594
▁rendered	-4595
▁Go	-4596
lock	-4597
▁Con	-4598
ivity	-4599
▁doct	-4600
▁offe	-4601
▁prepar	-4602
▁foreign	-4603
erves	-4604
▁deli	-4605
▁join	-4606
▁rank	-4607
▁rule	-4608
▁Agnes	-4609
utation	-4610
▁guests	-4611
▁Western	-4612
▁process	-4613
▁treated	-4614
▁positively	-4615
ón	-4616
▁amb	-4617
▁mach	-4618
father	-4619
▁minds	-4620
▁fellows	-4621
▁disagree	-4622
▁concerned	-4623
▁Charl	-4624
▁uneas	-4625
▁Weston	-4626
▁patience	-4627
▁calcul	-4628
▁General	-4629
▁striking	-4630
▁Partridge	-4631
▁described	-4632
oms	-4633
phe	-4634
▁huge	-4635
▁sank	-4636
▁tear	-4637
▁cases	-4638
▁duties	-4639
▁likewise	-4640
▁philosop	-4641
▁cow	-4642
▁lamp	-4643
▁directed	-4644
▁surrounded	-4645
▁tenderness	-4646
.)	-4647
yl	-4648
▁Son	-4649
▁emp	-4650
▁rul	-4651
overy	-4652
▁birds	-4653
▁Edward	-4654
▁beheld	-4655
▁utterly	-4656
▁interview	-4657
thew	-4658
▁bal	-4659
▁Mont	-4660
ternal	-4661
▁parlour	-4662
Be	-4663
▁En	-4664
oses	-4665
▁Hel	-4666
▁sav	-4667
▁Fisher	-4668
▁portra	-4669
▁disturb	-4670
▁similar	-4671
▁univers	-4672
▁furniture	-4673
▁seriously	-4674
▁mercy	-4675
itution	-4676
▁reproach	-4677
oe	-4678
▁Cl	-4679
▁clim	-4680
▁knife	-4681
▁abrupt	-4682
▁driven	-4683
▁exercise	-4684
erning	-4685
▁parted	-4686
▁hanging	-4687
ocr	-4688
osen	-4689
▁mud	-4690
▁scr	-4691
urely	-4692
▁sour	-4693
▁distr	-4694
ortense	-4695
▁attached	-4696
▁misfortune	-4697
book	-4698
▁hatred	-4699
▁squire	-4700
▁details	-4701
▁observation	-4702
ams	-4703
eem	-4704
▁Darcy	-4705
▁invited	-4706
▁weakness	-4707
io	-4708
oon	-4709
lease	-4710
▁oper	-4711
▁merry	-4712
▁Edmund	-4713
▁mystery	-4714
▁descended	-4715
ibly	-4716
▁flung	-4717
▁intent	-4718
▁Colonel	-4719
▁project	-4720
▁faithful	-4721
▁capt	-4722
▁subm	-4723
▁Sónya	-4724
▁Shatov	-4725
▁display	-4726
▁stepped	-4727
▁drinking	-4728
rily	-4729
▁rang	-4730
deacon	-4731
▁parts	-4732
▁Arabin	-4733
▁associ	-4734
▁system	-4735
▁infinite	-4736
▁execution	-4737
▁stretched	-4738
hip	-4739
Will	-4740
▁stead	-4741
▁consid	-4742
▁bearing	-4743
▁Katerina	-4744
▁ignorant	-4745
▁household	-4746
five	-4747
then	-4748
▁cottage	-4749
▁brilliant	-4750
▁compassion	-4751
elt	-4752
resp	-4753
utin	-4754
▁Kar	-4755
▁attract	-4756
chair	-4757
iform	-4758
meric	-4759
▁liter	-4760
▁shoes	-4761
▁Dmitri	-4762
▁convey	-4763
▁patient	-4764
nce	-4765
icing	-4766
pless	-4767
▁Rome	-4768
▁recon	-4769
erousse	-4770
▁sounds	-4771
istic	-4772
urity	-4773
▁Rose	-4774
▁cher	-4775
▁behold	-4776
▁flower	-4777
▁jumped	-4778
▁Matthew	-4779
▁solitary	-4780
▁expecting	-4781
An	-4782
▁tot	-4783
▁shru	-4784
▁forms	-4785
▁golden	-4786
▁Harding	-4787
▁everywhere	-4788
▁introduced	-4789
▁fee	-4790
ables	-4791
▁crit	-4792
▁widow	-4793
itating	-4794
▁bedroom	-4795
▁illness	-4796
▁raising	-4797
▁uniform	-4798
▁committed	-4799
▁favourite	-4800
ulia	-4801
▁rust	-4802
Perhaps	-4803
▁somebody	-4804
mas	-4805
▁Gre	-4806
▁dish	-4807
▁Peter	-4808
▁peasants	-4809
▁conclusion	-4810
▁hind	-4811
▁race	-4812
fulness	-4813
▁Caderousse	-4814
ora	-4815
▁prud	-4816
Nothing	-4817
▁buried	-4818
▁Grimaud	-4819
▁develop	-4820
▁motionless	-4821
▁experienced	-4822
rs	-4823
when	-4824
inton	-4825
▁Fair	-4826
▁apolog	-4827
▁gallop	-4828
▁breaking	-4829
nal	-4830
evna	-4831
oubt	-4832
▁Elt	-4833
▁cop	-4834
▁lan	-4835
▁tit	-4836
asted	-4837
▁knee	-4838
▁arose	-4839
▁queer	-4840
▁firmly	-4841
▁Hortense	-4842
▁unpleasant	-4843
Ex	-4844
▁Ex	-4845
▁abb	-4846
▁trick	-4847
▁weary	-4848
ication	-4849
▁Americ	-4850
▁compar	-4851
▁alarmed	-4852
▁excellency	-4853
ule	-4854
——”	-4855
aches	-4856
hearted	-4857
ulation	-4858
▁square	-4859
▁strict	-4860
▁hitherto	-4861
▁connected	-4862
▁represent	-4863
▁hab	-4864
▁Plan	-4865
▁chosen	-4866
▁amiable	-4867
▁wishing	-4868
▁opinions	-4869
▁sacrifice	-4870
dle	-4871
attered	-4872
▁barric	-4873
▁histor	-4874
▁loving	-4875
▁grey	-4876
▁method	-4877
▁mounted	-4878
▁somehow	-4879
▁thunder	-4880
▁Nastasia	-4881
▁original	-4882
▁tow	-4883
inate	-4884
▁Wick	-4885
▁chap	-4886
▁gown	-4887
▁exact	-4888
▁partly	-4889
▁ado	-4890
▁loves	-4891
▁notes	-4892
▁handed	-4893
▁rejoined	-4894
▁Charlotte	-4895
Bec	-4896
lov	-4897
ania	-4898
▁hol	-4899
udden	-4900
▁mild	-4901
▁test	-4902
▁clergyman	-4903
▁pronounced	-4904
fl	-4905
vre	-4906
▁Ab	-4907
▁sac	-4908
▁estate	-4909
▁locked	-4910
▁sighed	-4911
▁generous	-4912
aced	-4913
▁mars	-4914
▁Middle	-4915
▁addition	-4916
▁respectable	-4917
leg	-4918
arth	-4919
▁iss	-4920
▁lar	-4921
ulate	-4922
▁lone	-4923
▁swear	-4924
Because	-4925
▁mankind	-4926
▁belonged	-4927
▁glancing	-4928
oj	-4929
eme	-4930
▁Ra	-4931
▁Still	-4932
▁beast	-4933
▁reven	-4934
partout	-4935
▁Before	-4936
▁clouds	-4937
▁instruct	-4938
▁creatures	-4939
assepartout	-4940
sip	-4941
▁sym	-4942
cause	-4943
▁More	-4944
▁asce	-4945
▁dogs	-4946
▁keen	-4947
pelled	-4948
▁comic	-4949
uddenly	-4950
▁transp	-4951
▁gesture	-4952
▁composed	-4953
▁official	-4954
▁pictures	-4955
ojin	-4956
phew	-4957
▁papa	-4958
▁sche	-4959
▁silk	-4960
ration	-4961
▁sorts	-4962
erforth	-4963
▁Linton	-4964
▁helped	-4965
▁lively	-4966
▁nephew	-4967
▁purcha	-4968
▁travel	-4969
▁recalled	-4970
▁touching	-4971
Sir	-4972
ras	-4973
▁Pl	-4974
rant	-4975
aters	-4976
▁fetch	-4977
▁overt	-4978
▁stiff	-4979
▁tight	-4980
standing	-4981
▁indifferent	-4982
ée	-4983
cks	-4984
▁Ev	-4985
▁bod	-4986
▁buy	-4987
▁dwell	-4988
▁fears	-4989
▁coachman	-4990
▁disgrace	-4991
▁political	-4992
By	-4993
▁Bumble	-4994
▁bought	-4995
▁wholly	-4996
▁powerful	-4997
▁trembled	-4998
▁frequently	-4999
▁Passepartout	-5000
esh	-5001
Never	-5002
eless	-5003
nings	-5004
▁Roman	-5005
▁drank	-5006
▁fatig	-5007
▁Dorian	-5008
▁singing	-5009
▁Knightley	-5010
cerf	-5011
▁ain	-5012
ourge	-5013
▁Matty	-5014
▁Sonia	-5015
▁paces	-5016
▁stout	-5017
▁castle	-5018
▁interests	-5019
▁archdeacon	-5020
▁distinguished	-5021
cle	-5022
erie	-5023
mother	-5024
▁brave	-5025
▁dozen	-5026
▁absent	-5027
▁belief	-5028
▁genius	-5029
▁correct	-5030
▁efforts	-5031
▁willing	-5032
▁agitated	-5033
▁hastened	-5034
▁Steerforth	-5035
umn	-5036
▁ga	-5037
ikes	-5038
henka	-5039
▁Graeme	-5040
▁Hester	-5041
▁require	-5042
▁staring	-5043
▁enjoyment	-5044
▁sufficiently	-5045
geon	-5046
omen	-5047
▁ven	-5048
▁inward	-5049
▁summon	-5050
▁deliber	-5051
▁neglect	-5052
▁building	-5053
▁examined	-5054
▁Rochester	-5055
▁persuaded	-5056
▁concerning	-5057
▁lou	-5058
▁pan	-5059
inent	-5060
▁shed	-5061
orious	-5062
▁Robert	-5063
▁energy	-5064
▁Morcerf	-5065
▁Planchet	-5066
▁suspected	-5067
▁Elton	-5068
▁plans	-5069
▁slightest	-5070
ids	-5071
▁Fe	-5072
▁unm	-5073
itive	-5074
▁heat	-5075
▁laws	-5076
urance	-5077
▁upper	-5078
▁Philip	-5079
▁porter	-5080
▁provided	-5081
fax	-5082
▁Tré	-5083
▁pot	-5084
▁Jose	-5085
arling	-5086
▁raise	-5087
▁scorn	-5088
▁shake	-5089
▁Martha	-5090
▁habits	-5091
▁notion	-5092
▁picked	-5093
▁Rogojin	-5094
▁subjects	-5095
▁visitors	-5096
One	-5097
rows	-5098
some	-5099
▁novel	-5100
▁trial	-5101
▁render	-5102
▁intense	-5103
▁Countess	-5104
▁intimate	-5105
▁Che	-5106
▁smell	-5107
▁tempt	-5108
▁remains	-5109
▁wanting	-5110
Certainly	-5111
pel	-5112
▁wra	-5113
Thank	-5114
asing	-5115
▁gift	-5116
ension	-5117
ortion	-5118
▁silly	-5119
▁subst	-5120
▁swall	-5121
▁mental	-5122
▁Fairfax	-5123
▁portion	-5124
▁deserted	-5125
▁stronger	-5126
your	-5127
▁shr	-5128
althy	-5129
▁cult	-5130
hether	-5131
▁coffee	-5132
▁powers	-5133
▁attended	-5134
▁vanished	-5135
▁disagreeable	-5136
umm	-5137
▁dawn	-5138
▁shore	-5139
▁conven	-5140
▁vision	-5141
▁convict	-5142
▁parents	-5143
▁sentence	-5144
▁signific	-5145
gu	-5146
his	-5147
▁adj	-5148
▁inev	-5149
▁daily	-5150
▁whence	-5151
▁knocked	-5152
▁objects	-5153
▁apprehens	-5154
▁disturbed	-5155
long	-5156
▁Hon	-5157
▁aut	-5158
▁pipe	-5159
bedeff	-5160
▁esteem	-5161
▁William	-5162
▁careful	-5163
▁magnific	-5164
▁neighbourhood	-5165
eds	-5166
▁scru	-5167
▁unus	-5168
▁bride	-5169
▁refer	-5170
▁perceive	-5171
▁troubled	-5172
sc	-5173
▁Clu	-5174
▁incon	-5175
▁shirt	-5176
ugg	-5177
igne	-5178
kward	-5179
▁exped	-5180
▁employed	-5181
merdy	-5182
▁gain	-5183
▁lack	-5184
▁rene	-5185
▁slee	-5186
▁named	-5187
▁steam	-5188
▁female	-5189
▁stones	-5190
▁teacher	-5191
iev	-5192
jud	-5193
wenty	-5194
▁Gania	-5195
▁animal	-5196
▁modern	-5197
▁measure	-5198
▁strongly	-5199
▁fortnight	-5200
).	-5201
▁Ph	-5202
▁Sv	-5203
▁ling	-5204
▁liber	-5205
▁amongst	-5206
▁managed	-5207
merdyakov	-5208
▁Lebedeff	-5209
▁throwing	-5210
▁indifference	-5211
sm	-5212
▁win	-5213
▁moor	-5214
▁risk	-5215
▁shel	-5216
▁greet	-5217
▁victim	-5218
▁awkward	-5219
▁enemies	-5220
▁improve	-5221
▁perform	-5222
▁Suddenly	-5223
▁violence	-5224
▁Du	-5225
unch	-5226
▁Maj	-5227
asket	-5228
▁Ital	-5229
▁fatal	-5230
▁views	-5231
▁torment	-5232
peak	-5233
rier	-5234
board	-5235
▁Paul	-5236
▁Poor	-5237
▁Ward	-5238
▁Lorry	-5239
▁antic	-5240
▁earli	-5241
▁gather	-5242
▁nodded	-5243
▁praise	-5244
▁reward	-5245
▁becomes	-5246
▁domestic	-5247
▁forgiven	-5248
!_	-5249
upp	-5250
▁agony	-5251
▁flesh	-5252
▁shone	-5253
▁bewild	-5254
▁leaned	-5255
▁propos	-5256
▁seeking	-5257
▁resolute	-5258
▁Pip	-5259
▁rad	-5260
aries	-5261
▁Grus	-5262
▁niece	-5263
▁admire	-5264
▁mechan	-5265
——	-5266
▁Se	-5267
▁spr	-5268
▁Once	-5269
▁stars	-5270
▁vanity	-5271
▁departed	-5272
▁indignation	-5273
HA	-5274
ipp	-5275
work	-5276
▁ghost	-5277
▁prompt	-5278
▁closely	-5279
▁encoura	-5280
▁acknowled	-5281
▁prevented	-5282
▁Smerdyakov	-5283
▁difficulties	-5284
emy	-5285
▁Cr	-5286
seen	-5287
acieux	-5288
▁shade	-5289
▁active	-5290
▁eleven	-5291
▁fields	-5292
▁anticip	-5293
▁deceived	-5294
▁probable	-5295
▁Bonacieux	-5296
▁downstairs	-5297
ye	-5298
With	-5299
rors	-5300
step	-5301
▁bas	-5302
.”--“	-5303
▁instr	-5304
▁offended	-5305
plex	-5306
rooge	-5307
pended	-5308
▁enorm	-5309
▁senses	-5310
▁respons	-5311
▁distinct	-5312
▁humanity	-5313
▁occasions	-5314
▁considering	-5315
uten	-5316
▁Proud	-5317
▁lawyer	-5318
▁poison	-5319
▁majesty	-5320
▁constant	-5321
wl	-5322
inet	-5323
▁Raz	-5324
▁lit	-5325
▁neat	-5326
ential	-5327
▁humble	-5328
▁hungry	-5329
▁pillow	-5330
▁season	-5331
▁tur	-5332
eding	-5333
▁Pres	-5334
▁duke	-5335
▁burden	-5336
▁selfish	-5337
umi	-5338
▁Cel	-5339
▁rolled	-5340
▁Scrooge	-5341
▁flatter	-5342
▁parties	-5343
▁slightly	-5344
▁Sometimes	-5345
▁delivered	-5346
▁hurriedly	-5347
▁possibility	-5348
edy	-5349
ode	-5350
▁Fer	-5351
▁Kir	-5352
▁pier	-5353
▁Again	-5354
▁grasp	-5355
respond	-5356
▁endure	-5357
▁roused	-5358
’,	-5359
ffe	-5360
▁Fl	-5361
ashing	-5362
unning	-5363
▁smart	-5364
▁teach	-5365
▁wooden	-5366
▁actions	-5367
ok	-5368
edly	-5369
▁ard	-5370
entle	-5371
▁desk	-5372
▁emer	-5373
▁During	-5374
▁wretch	-5375
ourgeois	-5376
▁shining	-5377
▁sensation	-5378
▁constantly	-5379
oqu	-5380
▁ens	-5381
▁sex	-5382
▁unl	-5383
▁eating	-5384
▁contrad	-5385
▁desperate	-5386
▁connection	-5387
▁impatience	-5388
Wh	-5389
?--	-5390
avis	-5391
acious	-5392
▁complex	-5393
▁dancing	-5394
▁wearing	-5395
▁Everything	-5396
atis	-5397
▁ech	-5398
▁ere	-5399
range	-5400
stead	-5401
▁folly	-5402
▁Bishop	-5403
▁troops	-5404
▁message	-5405
▁portrait	-5406
▁practice	-5407
▁Grushenka	-5408
Dear	-5409
cent	-5410
▁lux	-5411
▁tail	-5412
▁Marne	-5413
▁built	-5414
▁dirty	-5415
▁manif	-5416
▁store	-5417
▁assumed	-5418
▁stopping	-5419
▁conditions	-5420
tle	-5421
▁Cha	-5422
ilian	-5423
▁chin	-5424
igneur	-5425
umihin	-5426
▁Sikes	-5427
▁charm	-5428
▁exert	-5429
▁fruit	-5430
▁darling	-5431
▁inquiry	-5432
▁Tréville	-5433
▁distinctly	-5434
gen	-5435
face	-5436
▁Bob	-5437
▁Vin	-5438
▁torn	-5439
chester	-5440
▁finish	-5441
▁infant	-5442
▁longed	-5443
▁secure	-5444
▁guessed	-5445
▁absorbed	-5446
▁correspond	-5447
▁Prov	-5448
▁Allen	-5449
natured	-5450
▁divine	-5451
▁folded	-5452
▁invitation	-5453
onder	-5454
▁hadn	-5455
▁diamond	-5456
▁solitude	-5457
▁Razumihin	-5458
▁receiving	-5459
▁religious	-5460
▁wondering	-5461
▁ug	-5462
vity	-5463
▁saf	-5464
▁insp	-5465
▁wealth	-5466
▁dismiss	-5467
▁mingled	-5468
▁overcome	-5469
▁commander	-5470
▁Fyodorovitch	-5471
▁Mag	-5472
▁fulf	-5473
▁tale	-5474
▁acted	-5475
▁signs	-5476
▁applied	-5477
▁dischar	-5478
▁flushed	-5479
▁shadows	-5480
▁slipped	-5481
▁formerly	-5482
vet	-5483
▁vul	-5484
otted	-5485
▁bull	-5486
▁pred	-5487
▁Winter	-5488
▁principal	-5489
▁principle	-5490
▁Petrovitch	-5491
ctory	-5492
▁pace	-5493
▁Those	-5494
▁Bennet	-5495
▁phrase	-5496
▁perplex	-5497
▁recover	-5498
▁heartily	-5499
▁military	-5500
▁immediate	-5501
▁disappointment	-5502
fty	-5503
elly	-5504
itate	-5505
▁lest	-5506
▁infer	-5507
▁shoot	-5508
quisite	-5509
▁bonnet	-5510
▁insisted	-5511
bar	-5512
rem	-5513
▁Fel	-5514
aling	-5515
▁cann	-5516
▁heap	-5517
▁leis	-5518
▁sees	-5519
irtier	-5520
▁Would	-5521
▁haunt	-5522
▁unlike	-5523
col	-5524
▁god	-5525
ingley	-5526
▁coarse	-5527
▁lonely	-5528
▁smooth	-5529
▁Proudie	-5530
▁describe	-5531
▁observing	-5532
▁Sw	-5533
Miss	-5534
▁lam	-5535
▁club	-5536
▁Raoul	-5537
▁glory	-5538
ference	-5539
▁detect	-5540
▁stayed	-5541
▁Marneffe	-5542
yal	-5543
itor	-5544
▁jew	-5545
▁puzz	-5546
▁ride	-5547
▁suppl	-5548
oundrel	-5549
▁polite	-5550
▁article	-5551
▁chimney	-5552
▁Pry	-5553
▁flo	-5554
upman	-5555
▁major	-5556
▁fierce	-5557
▁prayer	-5558
▁science	-5559
▁exception	-5560
;—	-5561
can	-5562
▁Dó	-5563
Take	-5564
▁loose	-5565
▁skill	-5566
▁laying	-5567
▁driving	-5568
▁enjoyed	-5569
▁attachment	-5570
bour	-5571
▁Made	-5572
▁comr	-5573
▁subs	-5574
▁straw	-5575
▁theat	-5576
▁decision	-5577
▁amazement	-5578
▁commission	-5579
raph	-5580
▁Sil	-5581
▁embra	-5582
▁hollow	-5583
▁motive	-5584
seigneur	-5585
▁shudder	-5586
▁brothers	-5587
▁bourgeois	-5588
▁discovery	-5589
why	-5590
▁eh	-5591
ilities	-5592
▁Musket	-5593
▁ceremony	-5594
▁exhausted	-5595
▁remaining	-5596
▁recollection	-5597
--"	-5598
▁Brown	-5599
▁hence	-5600
▁reckon	-5601
▁Another	-5602
▁Noirtier	-5603
▁contained	-5604
▁exquisite	-5605
▁objection	-5606
▁recognize	-5607
▁ec	-5608
▁ple	-5609
lokhov	-5610
▁overw	-5611
▁magist	-5612
▁displeas	-5613
▁landlord	-5614
Can	-5615
agin	-5616
▁ham	-5617
uously	-5618
▁Colin	-5619
▁Harry	-5620
▁bench	-5621
▁guide	-5622
▁purse	-5623
▁rocks	-5624
▁solic	-5625
▁satisf	-5626
▁strike	-5627
▁thread	-5628
▁heavens	-5629
▁properly	-5630
▁abandoned	-5631
▁earnestly	-5632
▁description	-5633
box	-5634
zing	-5635
▁vac	-5636
arson	-5637
ipped	-5638
▁Thou	-5639
▁abst	-5640
▁halt	-5641
▁plun	-5642
▁frank	-5643
▁Dólokhov	-5644
▁landlady	-5645
▁pressing	-5646
▁contented	-5647
▁doubtless	-5648
▁prisoners	-5649
oh	-5650
TER	-5651
nel	-5652
!...	-5653
▁shy	-5654
cture	-5655
ribut	-5656
▁Bart	-5657
▁Murd	-5658
▁extent	-5659
▁modest	-5660
▁Italian	-5661
▁Valerie	-5662
▁involunt	-5663
▁permitted	-5664
;”	-5665
aper	-5666
back	-5667
enth	-5668
inte	-5669
olen	-5670
oyal	-5671
▁Pole	-5672
▁rapt	-5673
▁Tupman	-5674
▁centre	-5675
▁forbid	-5676
▁beating	-5677
▁counsel	-5678
▁inquire	-5679
▁shouldn	-5680
▁anywhere	-5681
ris	-5682
▁Fau	-5683
ounia	-5684
▁hated	-5685
▁merit	-5686
▁betrayed	-5687
▁ecst	-5688
▁edge	-5689
▁mult	-5690
▁pave	-5691
▁cards	-5692
▁mamma	-5693
utenant	-5694
▁parish	-5695
▁steady	-5696
▁impulse	-5697
has	-5698
▁Dav	-5699
▁Old	-5700
▁Long	-5701
▁grim	-5702
ifying	-5703
▁vulgar	-5704
▁related	-5705
▁encourage	-5706
▁recommend	-5707
▁exh	-5708
umber	-5709
▁Maxim	-5710
▁price	-5711
▁scand	-5712
▁income	-5713
▁obtain	-5714
▁chiefly	-5715
▁respond	-5716
▁Murdstone	-5717
▁inclination	-5718
apa	-5719
chin	-5720
▁Low	-5721
▁hun	-5722
▁Jack	-5723
▁cloth	-5724
▁saint	-5725
▁defend	-5726
▁fairly	-5727
▁wisdom	-5728
▁degrees	-5729
▁gracious	-5730
▁sleeping	-5731
▁ridiculous	-5732
iddy	-5733
irmed	-5734
verty	-5735
▁fish	-5736
▁rail	-5737
orable	-5738
▁beard	-5739
avisham	-5740
▁humili	-5741
▁plenty	-5742
▁sacred	-5743
lessness	-5744
▁poverty	-5745
▁obtained	-5746
▁movements	-5747
▁precisely	-5748
▁Barchester	-5749
Look	-5750
cles	-5751
grat	-5752
hail	-5753
▁Han	-5754
▁ate	-5755
ember	-5756
glass	-5757
▁genu	-5758
velled	-5759
▁stuff	-5760
▁famous	-5761
▁disgust	-5762
▁quality	-5763
▁shouting	-5764
▁uncertain	-5765
▁exceedingly	-5766
▁grandfather	-5767
▁occasionally	-5768
enger	-5769
▁joke	-5770
▁ugly	-5771
▁caval	-5772
▁royal	-5773
▁members	-5774
▁Havisham	-5775
▁audience	-5776
▁moreover	-5777
▁treasure	-5778
▁scoundrel	-5779
▁waistcoat	-5780
!'	-5781
reg	-5782
▁Ol	-5783
▁Est	-5784
▁log	-5785
▁Garth	-5786
▁waves	-5787
▁commit	-5788
▁readily	-5789
▁stories	-5790
omy	-5791
lebr	-5792
▁Ell	-5793
▁rig	-5794
▁tied	-5795
utions	-5796
▁intend	-5797
▁market	-5798
▁safety	-5799
▁punishment	-5800
▁alter	-5801
▁calls	-5802
▁newsp	-5803
▁sport	-5804
▁wrath	-5805
▁depths	-5806
▁disord	-5807
▁resent	-5808
▁venture	-5809
HE	-5810
▁dw	-5811
▁Min	-5812
▁Vsy	-5813
▁bree	-5814
▁dine	-5815
▁impl	-5816
▁redu	-5817
evolod	-5818
▁plate	-5819
▁shrie	-5820
▁eldest	-5821
▁ruined	-5822
▁stream	-5823
▁dearest	-5824
▁hideous	-5825
▁neighbor	-5826
▁overwhel	-5827
▁Vsyevolod	-5828
▁Woodhouse	-5829
▁characters	-5830
▁discussion	-5831
▁Vsyevolodovitch	-5832
▁oh	-5833
▁orn	-5834
▁fury	-5835
▁sell	-5836
verted	-5837
▁borne	-5838
▁depri	-5839
▁produce	-5840
▁communication	-5841
Re	-5842
▁Def	-5843
▁Scot	-5844
▁deny	-5845
▁incap	-5846
▁Dounia	-5847
▁Bertram	-5848
▁Herbert	-5849
▁benefit	-5850
▁fearful	-5851
▁continue	-5852
▁enormous	-5853
▁relieved	-5854
▁starting	-5855
▁barricade	-5856
▁celebr	-5857
▁insist	-5858
▁Bingley	-5859
▁counter	-5860
▁ventured	-5861
▁preparing	-5862
▁magnificent	-5863
ifil	-5864
yard	-5865
▁mas	-5866
▁aven	-5867
▁Blifil	-5868
▁hearth	-5869
▁blessed	-5870
▁congrat	-5871
▁lantern	-5872
▁learning	-5873
▁ignorance	-5874
▁nevertheless	-5875
▁Med	-5876
▁cig	-5877
▁lin	-5878
after	-5879
orney	-5880
▁Dash	-5881
▁main	-5882
▁check	-5883
▁stamp	-5884
▁conject	-5885
▁hospital	-5886
▁troubles	-5887
▁compliment	-5888
▁reputation	-5889
▁affectionate	-5890
ox	-5891
aid	-5892
▁Lad	-5893
▁abbé	-5894
▁holy	-5895
▁sand	-5896
▁soot	-5897
▁Frank	-5898
▁urged	-5899
▁accomplished	-5900
▁vel	-5901
eling	-5902
▁fasc	-5903
▁Mihail	-5904
▁rested	-5905
▁genuine	-5906
▁Dashwood	-5907
omin	-5908
teau	-5909
▁sup	-5910
leine	-5911
table	-5912
▁Isab	-5913
▁warn	-5914
▁older	-5915
▁flying	-5916
▁fourth	-5917
▁inhabit	-5918
▁revenge	-5919
▁Beaufort	-5920
▁beforehand	-5921
▁sentiments	-5922
▁uneasiness	-5923
▁disappointed	-5924
eers	-5925
ilst	-5926
ival	-5927
▁bid	-5928
▁dil	-5929
▁gos	-5930
▁nurs	-5931
▁chain	-5932
▁demon	-5933
▁horiz	-5934
▁palace	-5935
▁angrily	-5936
▁declare	-5937
▁stirred	-5938
▁Madeleine	-5939
▁appointed	-5940
▁destroyed	-5941
gey	-5942
lle	-5943
▁CHA	-5944
▁rush	-5945
▁corrid	-5946
▁expense	-5947
▁helpless	-5948
.’”	-5949
any	-5950
bor	-5951
rot	-5952
uns	-5953
▁Me	-5954
woman	-5955
▁Trot	-5956
▁rude	-5957
▁brand	-5958
▁turns	-5959
▁Dickon	-5960
▁deserve	-5961
▁dislike	-5962
▁Helstone	-5963
enes	-5964
itiz	-5965
more	-5966
▁Pal	-5967
▁fer	-5968
ugust	-5969
▁pros	-5970
▁trade	-5971
▁Andrea	-5972
▁beings	-5973
▁cunning	-5974
▁staying	-5975
▁Christmas	-5976
boy	-5977
ived	-5978
▁vic	-5979
▁glit	-5980
▁libr	-5981
▁weap	-5982
▁chairs	-5983
▁humour	-5984
▁Grantly	-5985
▁Majesty	-5986
▁parting	-5987
▁silently	-5988
▁furnished	-5989
▁impatient	-5990
▁meanwhile	-5991
bing	-5992
▁See	-5993
▁pow	-5994
▁wag	-5995
▁Thor	-5996
▁disd	-5997
brance	-5998
▁badly	-5999
▁cared	-6000
▁elbow	-6001
▁groan	-6002
▁irres	-6003
avroche	-6004
▁native	-6005
▁Defarge	-6006
▁deliver	-6007
▁adventure	-6008
▁permission	-6009
iry	-6010
ician	-6011
▁sear	-6012
▁Edmond	-6013
▁losing	-6014
▁figures	-6015
▁pockets	-6016
▁Gavroche	-6017
▁announce	-6018
▁arrested	-6019
▁reminded	-6020
▁amusement	-6021
▁frightful	-6022
▁hole	-6023
riages	-6024
▁lesson	-6025
▁gallant	-6026
▁frequent	-6027
▁separated	-6028
▁travelling	-6029
▁expectation	-6030
Tell	-6031
aren	-6032
mind	-6033
▁Dolly	-6034
▁Vasya	-6035
▁print	-6036
▁desert	-6037
▁warmth	-6038
▁curtain	-6039
▁dragged	-6040
▁forever	-6041
▁murderer	-6042
▁attracted	-6043
▁consequently	-6044
mons	-6045
▁Bold	-6046
▁clos	-6047
▁idle	-6048
▁obed	-6049
▁park	-6050
▁skin	-6051
▁sust	-6052
▁elect	-6053
▁feels	-6054
▁shawl	-6055
▁marrying	-6056
▁uncomfort	-6057
▁violently	-6058
ax	-6059
cript	-6060
ighted	-6061
levent	-6062
▁Fagin	-6063
▁chose	-6064
▁flash	-6065
▁guest	-6066
▁hills	-6067
▁Kirill	-6068
▁arrive	-6069
▁interf	-6070
▁activity	-6071
▁confident	-6072
▁interposed	-6073
had	-6074
than	-6075
time	-6076
▁Bra	-6077
▁Hal	-6078
▁organ	-6079
▁Sergey	-6080
▁patron	-6081
▁prejud	-6082
▁devotion	-6083
▁comprehend	-6084
éd	-6085
Just	-6086
▁Bou	-6087
▁fol	-6088
▁wip	-6089
▁CHAP	-6090
▁swell	-6091
▁obeyed	-6092
entlemen	-6093
▁precaut	-6094
▁sounded	-6095
▁visited	-6096
▁intently	-6097
sar	-6098
ault	-6099
▁Dod	-6100
▁tha	-6101
piece	-6102
▁roll	-6103
▁wept	-6104
▁Felton	-6105
▁CHAPTER	-6106
▁century	-6107
▁painted	-6108
▁protest	-6109
chelevent	-6110
▁Isabella	-6111
▁condemned	-6112
lev	-6113
val	-6114
▁Wal	-6115
▁Olens	-6116
▁mourn	-6117
▁cannon	-6118
▁mortal	-6119
▁whilst	-6120
▁convent	-6121
ari	-6122
cip	-6123
▁"'	-6124
▁‘“	-6125
▁Many	-6126
▁prosec	-6127
▁divided	-6128
▁existed	-6129
▁qualities	-6130
withstanding	-6131
▁established	-6132
arya	-6133
emyon	-6134
▁hotel	-6135
ivering	-6136
▁exclam	-6137
▁daylight	-6138
don	-6139
see	-6140
▁Ant	-6141
▁ice	-6142
bable	-6143
▁Bath	-6144
▁vivid	-6145
ibility	-6146
▁smiles	-6147
▁crushed	-6148
▁secrets	-6149
▁incident	-6150
▁persuade	-6151
▁summoned	-6152
▁thoughtful	-6153
▁Sn	-6154
▁Ham	-6155
▁Mme	-6156
▁bund	-6157
geance	-6158
▁harsh	-6159
avrogin	-6160
▁Elliot	-6161
▁altered	-6162
▁criminal	-6163
▁jealousy	-6164
▁Fauchelevent	-6165
emm	-6166
▁hed	-6167
alled	-6168
▁lofty	-6169
▁swift	-6170
natural	-6171
raction	-6172
▁warmly	-6173
▁control	-6174
▁happens	-6175
▁strangely	-6176
ese	-6177
ggs	-6178
ache	-6179
aire	-6180
emmick	-6181
liness	-6182
▁bloom	-6183
▁disgu	-6184
▁yards	-6185
▁lessons	-6186
▁library	-6187
▁quitted	-6188
▁unusual	-6189
▁midnight	-6190
▁proportion	-6191
▁Sy	-6192
▁bol	-6193
▁stu	-6194
▁base	-6195
▁clut	-6196
▁ribb	-6197
▁Vincy	-6198
▁decide	-6199
▁island	-6200
▁rights	-6201
▁merchant	-6202
▁preferred	-6203
▁principles	-6204
▁Pé	-6205
▁Bri	-6206
▁sus	-6207
▁tap	-6208
gging	-6209
▁mile	-6210
▁doctr	-6211
▁waste	-6212
▁amused	-6213
▁reject	-6214
▁riding	-6215
▁governor	-6216
fall	-6217
ieve	-6218
▁lap	-6219
unken	-6220
▁Take	-6221
▁gets	-6222
▁mant	-6223
▁nois	-6224
▁pink	-6225
headed	-6226
▁appet	-6227
▁solid	-6228
▁trace	-6229
brother	-6230
eanwhile	-6231
▁cordial	-6232
▁surface	-6233
▁weeping	-6234
▁fastened	-6235
▁physical	-6236
God	-6237
rove	-6238
▁Him	-6239
▁Sat	-6240
▁alike	-6241
▁awake	-6242
▁wings	-6243
▁savage	-6244
▁Any	-6245
alley	-6246
awyer	-6247
dered	-6248
▁Mars	-6249
▁bust	-6250
ingham	-6251
▁Three	-6252
▁final	-6253
▁title	-6254
▁wheel	-6255
certain	-6256
▁Semyon	-6257
▁nights	-6258
▁perpet	-6259
▁Wemmick	-6260
▁anguish	-6261
▁descend	-6262
▁privile	-6263
▁extended	-6264
▁mischief	-6265
▁practical	-6266
uite	-6267
ilight	-6268
▁ideal	-6269
▁insol	-6270
▁march	-6271
▁sunsh	-6272
▁trous	-6273
plicity	-6274
▁missed	-6275
▁repose	-6276
▁sovere	-6277
hor	-6278
imate	-6279
islaw	-6280
▁pant	-6281
▁veil	-6282
idable	-6283
▁needs	-6284
▁acting	-6285
▁retire	-6286
▁scheme	-6287
▁leisure	-6288
▁independent	-6289
cal	-6290
ators	-6291
▁Fare	-6292
▁glow	-6293
▁quit	-6294
▁linen	-6295
▁Nikola	-6296
▁Thorne	-6297
▁unwill	-6298
▁compared	-6299
▁millions	-6300
▁separate	-6301
▁withdraw	-6302
Mrs	-6303
maid	-6304
▁Arb	-6305
ground	-6306
▁poured	-6307
▁exagger	-6308
▁warning	-6309
▁branches	-6310
▁delicacy	-6311
▁pavement	-6312
▁spiritual	-6313
▁confession	-6314
uce	-6315
yes	-6316
cast	-6317
▁Little	-6318
▁artist	-6319
▁borrow	-6320
▁doubts	-6321
▁incred	-6322
▁appreci	-6323
▁glimpse	-6324
▁Stavrogin	-6325
▁assurance	-6326
▁inquiries	-6327
▁performed	-6328
▁occupation	-6329
él	-6330
laced	-6331
olyte	-6332
▁rela	-6333
▁Night	-6334
▁blank	-6335
▁eloqu	-6336
▁erect	-6337
▁flour	-6338
▁level	-6339
▁cleared	-6340
▁elegant	-6341
▁sending	-6342
▁abruptly	-6343
▁blessing	-6344
▁remembrance	-6345
Nay	-6346
▁od	-6347
▁fac	-6348
▁echo	-6349
▁guns	-6350
▁gates	-6351
▁souls	-6352
▁accent	-6353
▁lasted	-6354
▁rarely	-6355
▁colonel	-6356
▁Ladislaw	-6357
▁fighting	-6358
▁breathing	-6359
▁hesitated	-6360
▁Vas	-6361
uming	-6362
▁Epan	-6363
aggers	-6364
akened	-6365
ormand	-6366
▁image	-6367
▁likes	-6368
▁lights	-6369
▁remarks	-6370
▁murdered	-6371
▁intelligent	-6372
▁som	-6373
gings	-6374
▁toss	-6375
▁weep	-6376
illing	-6377
leness	-6378
▁labor	-6379
▁Wardle	-6380
▁assert	-6381
▁charity	-6382
▁heavily	-6383
▁inspect	-6384
▁childhood	-6385
▁hesitation	-6386
tya	-6387
▁Mal	-6388
▁row	-6389
iving	-6390
▁Both	-6391
▁size	-6392
▁subd	-6393
▁Italy	-6394
▁theory	-6395
▁Olenska	-6396
▁destiny	-6397
▁gravely	-6398
▁contents	-6399
▁contrast	-6400
▁footstep	-6401
▁sunshine	-6402
▁answering	-6403
▁Te	-6404
illes	-6405
▁sixty	-6406
▁south	-6407
▁indulg	-6408
▁beloved	-6409
▁prayers	-6410
▁corridor	-6411
▁meantime	-6412
▁accordingly	-6413
▁consolation	-6414
nne	-6415
▁cas	-6416
icken	-6417
▁Gray	-6418
▁apply	-6419
▁north	-6420
▁repent	-6421
▁blushed	-6422
▁nearest	-6423
▁Meanwhile	-6424
past	-6425
umes	-6426
vres	-6427
▁dig	-6428
▁san	-6429
press	-6430
▁rent	-6431
bation	-6432
▁larger	-6433
▁accompany	-6434
▁arrangement	-6435
dig	-6436
hire	-6437
only	-6438
▁fil	-6439
▁gig	-6440
▁Upon	-6441
▁melt	-6442
▁wery	-6443
iation	-6444
▁Court	-6445
▁House	-6446
▁appeal	-6447
▁feeble	-6448
▁freely	-6449
▁thirst	-6450
▁clasped	-6451
▁letting	-6452
▁families	-6453
▁reasonable	-6454
▁spectacles	-6455
ique	-6456
▁owe	-6457
▁Hipp	-6458
▁jest	-6459
▁slip	-6460
▁flame	-6461
▁works	-6462
▁reluct	-6463
▁visits	-6464
▁partner	-6465
▁passions	-6466
▁twilight	-6467
▁essential	-6468
▁uncomfortable	-6469
”—	-6470
arm	-6471
gain	-6472
▁ren	-6473
▁tom	-6474
▁Merc	-6475
▁milk	-6476
umbled	-6477
▁gover	-6478
▁basket	-6479
▁invest	-6480
▁labour	-6481
▁learnt	-6482
▁contradict	-6483
▁ela	-6484
eline	-6485
uable	-6486
▁Celia	-6487
▁Pétya	-6488
▁Miller	-6489
▁coward	-6490
▁haught	-6491
▁hiding	-6492
▁member	-6493
▁proble	-6494
▁grounds	-6495
jol	-6496
▁Luc	-6497
▁unw	-6498
faced	-6499
ocket	-6500
▁lane	-6501
▁People	-6502
▁carpet	-6503
▁origin	-6504
▁waters	-6505
▁consist	-6506
▁district	-6507
▁numerous	-6508
▁attempted	-6509
▁discourse	-6510
▁preserved	-6511
▁supported	-6512
▁revolution	-6513
án	-6514
--”	-6515
▁bou	-6516
▁cla	-6517
▁unb	-6518
▁eyeb	-6519
▁peep	-6520
▁indic	-6521
▁calmly	-6522
▁musket	-6523
▁convuls	-6524
▁drunken	-6525
▁furious	-6526
▁instrument	-6527
▁determination	-6528
Only	-6529
ogue	-6530
sell	-6531
ishes	-6532
▁Mans	-6533
▁sang	-6534
rences	-6535
uthnot	-6536
▁Austri	-6537
▁branch	-6538
▁bending	-6539
▁benevol	-6540
▁kingdom	-6541
▁inconven	-6542
▁Arbuthnot	-6543
▁incapable	-6544
▁enthusiasm	-6545
rue	-6546
tel	-6547
eeld	-6548
▁hom	-6549
▁oath	-6550
▁unre	-6551
Listen	-6552
minded	-6553
▁Darya	-6554
▁Keeld	-6555
▁decor	-6556
▁delir	-6557
version	-6558
▁faults	-6559
▁behaved	-6560
▁satisfy	-6561
▁argument	-6562
▁ascertain	-6563
▁conducted	-6564
▁consequences	-6565
yr	-6566
pes	-6567
azin	-6568
dale	-6569
▁Bell	-6570
▁Bret	-6571
▁damp	-6572
▁flut	-6573
resses	-6574
▁specul	-6575
▁Middlem	-6576
▁follows	-6577
▁remorse	-6578
▁definite	-6579
▁lodgings	-6580
▁Hippolyte	-6581
▁directions	-6582
oz	-6583
por	-6584
cuse	-6585
▁nay	-6586
iring	-6587
▁vale	-6588
▁blows	-6589
▁risen	-6590
▁Guards	-6591
▁detail	-6592
▁scenes	-6593
▁source	-6594
▁velvet	-6595
itations	-6596
▁Keeldar	-6597
▁abandon	-6598
▁thither	-6599
▁quarters	-6600
▁compliments	-6601
▁establishment	-6602
?'	-6603
▁daz	-6604
▁mode	-6605
▁illum	-6606
▁inval	-6607
▁Joseph	-6608
▁Estella	-6609
▁disdain	-6610
▁flashed	-6611
▁pursuit	-6612
▁animated	-6613
▁lightning	-6614
▁attentively	-6615
pen	-6616
eral	-6617
four	-6618
▁ecc	-6619
▁coin	-6620
▁farm	-6621
▁rasc	-6622
rative	-6623
▁legal	-6624
▁gloves	-6625
▁indisp	-6626
▁signed	-6627
▁reserve	-6628
▁bestowed	-6629
▁restored	-6630
▁revealed	-6631
▁startled	-6632
▁assembled	-6633
▁fortunate	-6634
rib	-6635
have	-6636
pled	-6637
never	-6638
▁ruff	-6639
▁tiny	-6640
▁wolf	-6641
▁sheet	-6642
▁Sawyer	-6643
▁stands	-6644
▁pulling	-6645
▁confined	-6646
▁exchanged	-6647
▁pretended	-6648
▁responded	-6649
▁complexion	-6650
▁distinction	-6651
oir	-6652
ecil	-6653
sing	-6654
▁cro	-6655
▁brid	-6656
▁drown	-6657
▁ingen	-6658
▁limbs	-6659
▁owing	-6660
▁pains	-6661
▁unjust	-6662
▁kissing	-6663
▁lodging	-6664
▁wrapped	-6665
▁preceding	-6666
▁magistrate	-6667
tes	-6668
onst	-6669
▁Pol	-6670
mended	-6671
queton	-6672
athetic	-6673
▁collar	-6674
▁dishon	-6675
▁mighty	-6676
▁desires	-6677
▁popular	-6678
▁withdrew	-6679
▁intervals	-6680
▁obviously	-6681
▁scattered	-6682
▁forgetting	-6683
▁Fix	-6684
▁bla	-6685
▁ink	-6686
...."	-6687
▁Fitz	-6688
▁degr	-6689
▁meal	-6690
▁Bates	-6691
▁Could	-6692
▁discl	-6693
▁inner	-6694
ounding	-6695
ression	-6696
▁cultiv	-6697
▁admired	-6698
▁variety	-6699
▁sovereign	-6700
▁Philipovna	-6701
▁sar	-6702
▁sne	-6703
champ	-6704
▁Brit	-6705
▁Very	-6706
jolras	-6707
master	-6708
necess	-6709
▁awoke	-6710
▁error	-6711
▁sober	-6712
▁squee	-6713
ressing	-6714
▁Martin	-6715
▁yonder	-6716
▁Without	-6717
▁manifest	-6718
▁innocence	-6719
▁triumphant	-6720
abet	-6721
▁apt	-6722
▁lac	-6723
ashes	-6724
▁fain	-6725
▁citiz	-6726
▁loudly	-6727
▁signal	-6728
inations	-6729
▁effects	-6730
▁gallery	-6731
▁offence	-6732
▁propose	-6733
▁childish	-6734
▁Maximilian	-6735
▁intentions	-6736
▁proceeding	-6737
▁Middlemarch	-6738
▁reflections	-6739
apt	-6740
mod	-6741
Poor	-6742
▁Gree	-6743
▁elev	-6744
▁frost	-6745
perhaps	-6746
▁victory	-6747
▁collected	-6748
▁acknowledge	-6749
▁Av	-6750
give	-6751
inks	-6752
rous	-6753
erson	-6754
hered	-6755
uries	-6756
▁fant	-6757
▁inher	-6758
▁vexed	-6759
▁coffin	-6760
▁mutual	-6761
▁resour	-6762
▁select	-6763
▁tavern	-6764
▁feather	-6765
▁Kirillov	-6766
▁composure	-6767
▁lieutenant	-6768
▁appointment	-6769
▁sed	-6770
▁jack	-6771
▁prem	-6772
▁tide	-6773
▁Abbot	-6774
▁career	-6775
▁earlier	-6776
▁monster	-6777
▁resting	-6778
▁scarlet	-6779
▁seeming	-6780
▁strangers	-6781
▁wandering	-6782
did	-6783
isk	-6784
▁Til	-6785
▁hit	-6786
▁monk	-6787
▁stam	-6788
▁ident	-6789
▁slave	-6790
▁Mercéd	-6791
▁hunger	-6792
▁tumult	-6793
▁crimson	-6794
▁Enjolras	-6795
▁softened	-6796
▁thousands	-6797
▁vengeance	-6798
▁Englishman	-6799
▁bewildered	-6800
ino	-6801
athed	-6802
▁fled	-6803
▁lace	-6804
▁mock	-6805
▁wheels	-6806
▁crowded	-6807
▁discern	-6808
▁pleasing	-6809
▁certainty	-6810
▁Farebrother	-6811
anc	-6812
occ	-6813
oni	-6814
rog	-6815
door	-6816
▁High	-6817
▁ward	-6818
antine	-6819
▁Since	-6820
▁condes	-6821
▁Bretton	-6822
▁current	-6823
▁lightly	-6824
▁sharply	-6825
▁intimacy	-6826
▁Churchill	-6827
▁compelled	-6828
▁eagerness	-6829
▁passionate	-6830
▁distinguish	-6831
._	-6832
gins	-6833
▁Bel	-6834
hable	-6835
▁resc	-6836
▁permit	-6837
▁gravity	-6838
▁increase	-6839
▁offering	-6840
▁services	-6841
▁unnecess	-6842
▁politeness	-6843
▁protection	-6844
gon	-6845
▁Lip	-6846
▁Squ	-6847
▁doc	-6848
grass	-6849
▁Aven	-6850
▁Coll	-6851
▁Span	-6852
▁date	-6853
▁dise	-6854
blance	-6855
▁Pearl	-6856
▁State	-6857
▁crept	-6858
▁swept	-6859
▁woods	-6860
▁Tilney	-6861
▁causes	-6862
▁eternal	-6863
▁horizon	-6864
▁complaint	-6865
▁pleasures	-6866
▁examination	-6867
ki	-6868
mat	-6869
▁ax	-6870
aping	-6871
▁impr	-6872
▁meat	-6873
▁Great	-6874
▁Under	-6875
▁mixed	-6876
▁decent	-6877
▁amusing	-6878
▁obscure	-6879
▁tonight	-6880
▁belonging	-6881
▁Providence	-6882
▁arrangements	-6883
dal	-6884
nie	-6885
ste	-6886
iche	-6887
▁fist	-6888
▁sunk	-6889
▁Smith	-6890
▁Whether	-6891
▁chapter	-6892
▁worship	-6893
▁favorite	-6894
▁Beauchamp	-6895
▁Sey	-6896
achel	-6897
▁Rush	-6898
▁ferv	-6899
▁Cecil	-6900
▁Grant	-6901
▁block	-6902
▁disli	-6903
▁sympt	-6904
▁advise	-6905
▁purple	-6906
enormand	-6907
▁persist	-6908
▁plunged	-6909
▁theatre	-6910
▁trousers	-6911
▁indicated	-6912
▁reception	-6913
▁impatiently	-6914
gue	-6915
ayed	-6916
herd	-6917
▁lip	-6918
▁sew	-6919
ierry	-6920
▁ours	-6921
▁pian	-6922
▁stole	-6923
▁upset	-6924
ordaunt	-6925
▁closer	-6926
▁record	-6927
▁supply	-6928
▁Jaggers	-6929
▁pretend	-6930
▁scandal	-6931
▁torture	-6932
ousqueton	-6933
▁crossing	-6934
▁universal	-6935
fs	-6936
▁um	-6937
▁ze	-6938
▁doll	-6939
▁ends	-6940
▁wake	-6941
▁thief	-6942
odgrass	-6943
▁critic	-6944
▁hoping	-6945
▁hyster	-6946
ceptible	-6947
▁smoking	-6948
▁interval	-6949
▁governess	-6950
▁unwilling	-6951
enka	-6952
▁Uri	-6953
▁hyp	-6954
▁spl	-6955
▁wre	-6956
▁chill	-6957
▁owner	-6958
▁rever	-6959
▁burned	-6960
▁deeper	-6961
▁thresh	-6962
sibility	-6963
▁steward	-6964
▁thanked	-6965
▁Jennings	-6966
▁Moreover	-6967
▁irresist	-6968
▁Rushworth	-6969
▁favourable	-6970
▁formidable	-6971
▁Gillenormand	-6972
upon	-6973
▁sly	-6974
▁nest	-6975
▁pled	-6976
asting	-6977
isible	-6978
otions	-6979
ethierry	-6980
▁machine	-6981
▁eyebrows	-6982
▁impressed	-6983
▁grandmother	-6984
emb	-6985
▁Bas	-6986
▁dus	-6987
leton	-6988
▁Stan	-6989
▁hell	-6990
rained	-6991
▁admin	-6992
▁courty	-6993
▁paying	-6994
▁checked	-6995
▁inferior	-6996
▁Frenchman	-6997
▁threshold	-6998
▁simplicity	-6999
▁destruction	-7000
char	-7001
ques	-7002
▁Mess	-7003
▁Time	-7004
▁rope	-7005
▁Green	-7006
▁cares	-7007
▁tells	-7008
▁vener	-7009
▁butter	-7010
▁pupils	-7011
▁Liputin	-7012
▁enchant	-7013
▁fatigue	-7014
▁villain	-7015
▁feverish	-7016
▁realized	-7017
▁carriages	-7018
▁introduce	-7019
▁messenger	-7020
▁endeavoured	-7021
▁notwithstanding	-7022
lac	-7023
▁bord	-7024
▁fires	-7025
▁guilt	-7026
▁naked	-7027
▁rival	-7028
piration	-7029
▁funeral	-7030
▁prepare	-7031
▁prosper	-7032
▁conceive	-7033
▁noticing	-7034
▁tranquil	-7035
ulars	-7036
▁vice	-7037
twenty	-7038
verend	-7039
▁Colia	-7040
▁champ	-7041
▁dimin	-7042
▁pupil	-7043
▁easier	-7044
▁parson	-7045
▁candles	-7046
▁examine	-7047
▁procure	-7048
▁Mordaunt	-7049
▁positive	-7050
▁solemnly	-7051
▁dreadfully	-7052
áv	-7053
alls	-7054
olya	-7055
such	-7056
▁ric	-7057
uding	-7058
▁dece	-7059
▁flow	-7060
▁outl	-7061
▁Yorke	-7062
▁color	-7063
▁depos	-7064
▁perse	-7065
▁seconds	-7066
▁ambition	-7067
▁proposal	-7068
▁retorted	-7069
▁Snodgrass	-7070
▁advancing	-7071
▁sufferings	-7072
▁inhabitants	-7073
▁Dé	-7074
cean	-7075
port	-7076
▁Ily	-7077
▁Its	-7078
▁deb	-7079
genie	-7080
mered	-7081
would	-7082
▁east	-7083
▁eaten	-7084
▁fired	-7085
▁roads	-7086
▁scold	-7087
▁actual	-7088
▁extrem	-7089
▁monstr	-7090
▁dreamed	-7091
▁reaching	-7092
▁terribly	-7093
▁Something	-7094
▁confirmed	-7095
▁elsewhere	-7096
▁instructions	-7097
nde	-7098
▁gla	-7099
asion	-7100
▁Chan	-7101
▁wave	-7102
usions	-7103
▁Uriah	-7104
▁tones	-7105
▁cellar	-7106
▁forces	-7107
▁appetite	-7108
▁steadily	-7109
▁conceived	-7110
▁Mousqueton	-7111
▁honourable	-7112
▁opposition	-7113
▁previously	-7114
lic	-7115
▁Far	-7116
olate	-7117
ublic	-7118
▁grin	-7119
illery	-7120
▁crack	-7121
▁holid	-7122
▁moder	-7123
▁August	-7124
▁assass	-7125
▁benefa	-7126
▁guards	-7127
▁America	-7128
▁corners	-7129
▁happily	-7130
▁disorder	-7131
▁footsteps	-7132
▁reference	-7133
▁comparison	-7134
olic	-7135
▁Jac	-7136
▁Sus	-7137
▁ray	-7138
asping	-7139
ulties	-7140
▁Kolya	-7141
▁keeps	-7142
▁nation	-7143
▁nerves	-7144
▁talent	-7145
▁attacked	-7146
▁smallest	-7147
▁uncommon	-7148
▁Lethierry	-7149
▁courtyard	-7150
▁supposing	-7151
▁philosophy	-7152
▁probability	-7153
▁acknowledged	-7154
usal	-7155
▁Wat	-7156
escri	-7157
▁sket	-7158
▁term	-7159
engers	-7160
▁Water	-7161
▁burnt	-7162
▁gleam	-7163
▁roses	-7164
▁Seyton	-7165
▁danced	-7166
▁robber	-7167
▁saving	-7168
▁waiter	-7169
▁Evgenie	-7170
▁footman	-7171
▁disappear	-7172
ef	-7173
rene	-7174
leven	-7175
▁Duke	-7176
▁Prok	-7177
▁dazz	-7178
▁pall	-7179
versed	-7180
▁teleg	-7181
▁charms	-7182
▁errand	-7183
▁gossip	-7184
▁tempor	-7185
▁changes	-7186
▁charged	-7187
▁embrace	-7188
▁puzzled	-7189
▁mountain	-7190
▁desirable	-7191
▁faculties	-7192
▁repeating	-7193
▁particulars	-7194
▁Nevertheless	-7195
mean	-7196
rain	-7197
▁Hay	-7198
▁ach	-7199
aging	-7200
▁Anat	-7201
oughby	-7202
▁blush	-7203
▁corpse	-7204
▁marble	-7205
▁poetry	-7206
▁counting	-7207
▁curtains	-7208
▁province	-7209
▁wandered	-7210
▁residence	-7211
▁struggling	-7212
▁represented	-7213
▁constitution	-7214
--‘	-7215
Alas	-7216
From	-7217
avri	-7218
▁Each	-7219
▁York	-7220
▁mute	-7221
▁Barry	-7222
▁heels	-7223
▁quant	-7224
▁Prokof	-7225
▁suited	-7226
▁motives	-7227
▁tenderly	-7228
▁anxiously	-7229
▁personage	-7230
▁Willoughby	-7231
▁celebrated	-7232
▁intellectual	-7233
Ay	-7234
ige	-7235
arte	-7236
ileas	-7237
riety	-7238
erving	-7239
idents	-7240
▁piano	-7241
▁rules	-7242
▁Graham	-7243
▁refuge	-7244
▁sevent	-7245
▁united	-7246
▁Anatole	-7247
▁million	-7248
▁graceful	-7249
▁endeavour	-7250
▁suspicious	-7251
▁communicated	-7252
Her	-7253
ads	-7254
hic	-7255
mos	-7256
ture	-7257
▁Bee	-7258
Would	-7259
▁writ	-7260
Madame	-7261
▁polic	-7262
▁score	-7263
▁staff	-7264
▁combat	-7265
▁ceiling	-7266
▁masters	-7267
▁acquired	-7268
▁suspicions	-7269
▁remembering	-7270
▁unnecessary	-7271
His	-7272
phan	-7273
▁dun	-7274
▁wax	-7275
▁Went	-7276
▁appar	-7277
▁peril	-7278
▁track	-7279
▁waved	-7280
atively	-7281
ization	-7282
▁darted	-7283
▁saddle	-7284
▁created	-7285
▁awakened	-7286
rac	-7287
ront	-7288
Every	-7289
▁Love	-7290
▁batt	-7291
gments	-7292
▁Stanh	-7293
▁dined	-7294
▁drops	-7295
▁embro	-7296
▁hasty	-7297
▁reass	-7298
umption	-7299
▁safely	-7300
▁surpri	-7301
▁traces	-7302
▁avoided	-7303
▁madness	-7304
▁shelter	-7305
▁restless	-7306
May	-7307
fen	-7308
..."	-7309
bray	-7310
firy	-7311
▁Sim	-7312
▁THE	-7313
▁fog	-7314
arded	-7315
▁June	-7316
▁encl	-7317
▁Watson	-7318
▁murmur	-7319
▁powder	-7320
▁concent	-7321
▁glasses	-7322
▁lifting	-7323
▁medical	-7324
▁tremble	-7325
▁wherever	-7326
▁Wentworth	-7327
▁monstrous	-7328
▁encountered	-7329
pro	-7330
▁pil	-7331
itute	-7332
pherd	-7333
▁envy	-7334
▁lift	-7335
▁Ethan	-7336
▁arist	-7337
▁Silver	-7338
▁induced	-7339
▁accounts	-7340
▁articles	-7341
▁conflict	-7342
▁desirous	-7343
▁invisible	-7344
▁prevailed	-7345
▁respected	-7346
▁threatened	-7347
_;	-7348
bell	-7349
▁Jul	-7350
urred	-7351
▁Liza	-7352
▁Loch	-7353
▁dict	-7354
▁Biddy	-7355
▁Ellen	-7356
▁altern	-7357
▁anyway	-7358
▁impert	-7359
▁series	-7360
▁Phileas	-7361
▁breathe	-7362
▁bitterly	-7363
▁breathed	-7364
▁embraced	-7365
▁valuable	-7366
▁confessed	-7367
▁sincerely	-7368
▁sensations	-7369
▁threatening	-7370
onc	-7371
even	-7372
▁Thr	-7373
inity	-7374
overn	-7375
▁Give	-7376
▁Hill	-7377
▁Vict	-7378
▁cham	-7379
cribed	-7380
itably	-7381
▁Yulia	-7382
nothing	-7383
▁dispos	-7384
interest	-7385
▁reduced	-7386
▁trusted	-7387
▁Baroness	-7388
▁changing	-7389
▁dwelling	-7390
▁eighteen	-7391
▁emotions	-7392
▁generosity	-7393
▁whispering	-7394
▁entertained	-7395
▁philosopher	-7396
▁involuntarily	-7397
je	-7398
uz	-7399
riga	-7400
uits	-7401
▁Fle	-7402
▁coo	-7403
eries	-7404
▁deem	-7405
▁econ	-7406
▁rigid	-7407
oubtedly	-7408
▁cousins	-7409
▁catching	-7410
▁improved	-7411
▁romantic	-7412
▁screamed	-7413
▁consisted	-7414
eys	-7415
▁Sal	-7416
heard	-7417
▁perf	-7418
idriga	-7419
▁brisk	-7420
▁sheep	-7421
▁Norris	-7422
▁beaten	-7423
▁dreaded	-7424
▁obvious	-7425
▁capacity	-7426
▁politics	-7427
▁believing	-7428
▁decidedly	-7429
▁mountains	-7430
▁advantages	-7431
▁encouraged	-7432
▁characteristic	-7433
Was	-7434
_.”	-7435
glas	-7436
lett	-7437
mond	-7438
pers	-7439
▁oak	-7440
▁rud	-7441
▁Next	-7442
▁Comte	-7443
▁bundle	-7444
▁judged	-7445
▁valley	-7446
▁despise	-7447
▁leather	-7448
▁shortly	-7449
▁doubtful	-7450
▁frowning	-7451
▁shuddered	-7452
▁terrified	-7453
▁unconsciously	-7454
wr	-7455
▁Im	-7456
▁lat	-7457
▁ages	-7458
▁lend	-7459
isions	-7460
▁cough	-7461
▁insen	-7462
▁vehic	-7463
umbling	-7464
▁exting	-7465
▁formal	-7466
▁openly	-7467
▁relate	-7468
▁sombre	-7469
▁strang	-7470
▁Porfiry	-7471
▁audible	-7472
▁elderly	-7473
▁injured	-7474
▁whither	-7475
▁complain	-7476
▁deserved	-7477
▁exchange	-7478
▁restrain	-7479
▁Alexander	-7480
▁arguments	-7481
▁unnatural	-7482
▁calculated	-7483
▁expressions	-7484
nah	-7485
rati	-7486
essie	-7487
▁sore	-7488
▁sway	-7489
▁tore	-7490
▁whip	-7491
▁cease	-7492
▁lodge	-7493
▁revel	-7494
▁valet	-7495
▁Debray	-7496
▁Louisa	-7497
▁longing	-7498
▁sympath	-7499
▁Svidriga	-7500
▁insulted	-7501
▁security	-7502
▁examining	-7503
▁embarrassment	-7504
▁hay	-7505
▁spy	-7506
▁Spen	-7507
▁bond	-7508
▁craw	-7509
▁cure	-7510
chette	-7511
▁adjut	-7512
▁armed	-7513
▁disci	-7514
▁ranks	-7515
▁Perker	-7516
▁brandy	-7517
▁handle	-7518
▁orphan	-7519
▁spared	-7520
▁superf	-7521
▁trifle	-7522
▁pistols	-7523
▁yielded	-7524
▁Bartlett	-7525
▁tranquill	-7526
▁expressing	-7527
▁embarrassed	-7528
--’	-7529
iner	-7530
mosp	-7531
usive	-7532
▁Mort	-7533
▁male	-7534
▁sink	-7535
ounted	-7536
▁Beebe	-7537
▁Clubin	-7538
▁button	-7539
▁dismal	-7540
▁induce	-7541
▁patter	-7542
▁remote	-7543
▁sailor	-7544
▁stable	-7545
▁submit	-7546
▁Douglas	-7547
▁bargain	-7548
▁draught	-7549
▁blushing	-7550
▁Lochleven	-7551
▁statement	-7552
▁inevitable	-7553
▁apprehension	-7554
Mar	-7555
▁Gl	-7556
ales	-7557
bler	-7558
hael	-7559
itin	-7560
▁hut	-7561
▁sna	-7562
rette	-7563
▁mead	-7564
▁stif	-7565
inkled	-7566
▁abund	-7567
▁afore	-7568
▁stuck	-7569
▁banker	-7570
▁beggar	-7571
▁deject	-7572
▁shaken	-7573
▁doorway	-7574
▁refresh	-7575
▁Epanchin	-7576
▁investig	-7577
▁Mihailovna	-7578
▁attentions	-7579
▁separation	-7580
▁recommended	-7581
▁superiority	-7582
▁Il	-7583
bury	-7584
from	-7585
▁Reg	-7586
Shall	-7587
break	-7588
plain	-7589
▁Aunt	-7590
▁Hans	-7591
▁plat	-7592
▁type	-7593
▁medic	-7594
▁ocean	-7595
▁atmosp	-7596
▁hearty	-7597
▁incomp	-7598
▁volunt	-7599
▁wasted	-7600
ruchette	-7601
▁undertake	-7602
two	-7603
idel	-7604
▁Tem	-7605
olkón	-7606
▁subl	-7607
ingale	-7608
▁Bonap	-7609
▁Grace	-7610
▁recei	-7611
emember	-7612
▁Honour	-7613
▁obstin	-7614
▁persec	-7615
▁repuls	-7616
▁rushing	-7617
▁species	-7618
▁subdued	-7619
▁guardian	-7620
▁appearing	-7621
▁employment	-7622
▁throughout	-7623
gre	-7624
ante	-7625
▁Matt	-7626
▁deed	-7627
▁muff	-7628
▁bliss	-7629
▁lament	-7630
▁awaited	-7631
▁sternly	-7632
▁armchair	-7633
▁glorious	-7634
▁inspired	-7635
▁preserve	-7636
▁reserved	-7637
▁treacher	-7638
▁Déruchette	-7639
▁Musketeers	-7640
Un	-7641
bby	-7642
rav	-7643
reme	-7644
rick	-7645
▁Cor	-7646
gered	-7647
occup	-7648
sibly	-7649
▁Arab	-7650
▁prim	-7651
▁tomb	-7652
ernand	-7653
▁India	-7654
▁whirl	-7655
▁recent	-7656
▁survey	-7657
▁Collins	-7658
▁counted	-7659
▁haunted	-7660
▁prolong	-7661
▁dropping	-7662
▁indescri	-7663
▁witnesses	-7664
▁affections	-7665
▁recognised	-7666
pha	-7667
Give	-7668
cile	-7669
wind	-7670
▁Tur	-7671
▁Vir	-7672
▁gam	-7673
▁Cath	-7674
▁jury	-7675
▁Among	-7676
▁exper	-7677
▁lucky	-7678
▁marks	-7679
▁porch	-7680
chamber	-7681
▁hoarse	-7682
ulations	-7683
▁Fantine	-7684
▁adopted	-7685
▁classes	-7686
▁liberal	-7687
▁accommod	-7688
▁ladyship	-7689
▁physician	-7690
▁tolerably	-7691
▁neighbours	-7692
cel	-7693
icket	-7694
▁beds	-7695
Really	-7696
manuel	-7697
▁envel	-7698
▁finds	-7699
▁mould	-7700
▁pitch	-7701
▁sadly	-7702
▁scent	-7703
▁serge	-7704
▁snuff	-7705
▁walks	-7706
▁coldly	-7707
▁engine	-7708
▁lovers	-7709
▁stolen	-7710
▁defence	-7711
▁ringing	-7712
▁upright	-7713
▁worldly	-7714
▁worried	-7715
▁careless	-7716
▁forgiveness	-7717
zh	-7718
,—“	-7719
▁Si	-7720
shop	-7721
tree	-7722
▁Dur	-7723
▁Kat	-7724
▁non	-7725
▁que	-7726
uster	-7727
▁Port	-7728
▁leaf	-7729
▁west	-7730
akitin	-7731
retion	-7732
liament	-7733
▁maiden	-7734
▁thence	-7735
▁Neither	-7736
▁presume	-7737
▁youthful	-7738
▁atmosphere	-7739
▁preparations	-7740
bol	-7741
▁ge	-7742
ande	-7743
▁bind	-7744
▁mart	-7745
▁trag	-7746
▁infam	-7747
fashion	-7748
▁Victor	-7749
▁approve	-7750
▁cutting	-7751
▁dresses	-7752
▁element	-7753
▁studied	-7754
▁encounter	-7755
▁irritated	-7756
▁spectacle	-7757
▁treatment	-7758
▁suggestion	-7759
▁professional	-7760
mir	-7761
pic	-7762
▁Tra	-7763
▁tid	-7764
asper	-7765
erick	-7766
▁Alas	-7767
▁About	-7768
▁Maria	-7769
▁Susan	-7770
▁faded	-7771
▁flood	-7772
▁hedge	-7773
▁outer	-7774
▁amazed	-7775
▁autumn	-7776
▁betrot	-7777
▁pursue	-7778
▁quarre	-7779
▁weapon	-7780
▁Because	-7781
▁accused	-7782
▁comprom	-7783
▁doubted	-7784
▁modesty	-7785
▁shocked	-7786
▁tempted	-7787
▁awaiting	-7788
▁envelope	-7789
▁maintain	-7790
▁respects	-7791
▁trifling	-7792
▁resistance	-7793
gy	-7794
psed	-7795
▁Lav	-7796
▁Sch	-7797
▁heed	-7798
▁pond	-7799
▁wash	-7800
▁balls	-7801
▁funny	-7802
▁prett	-7803
ulating	-7804
▁assume	-7805
▁incess	-7806
▁reappe	-7807
▁Rakitin	-7808
▁Wickham	-7809
▁costume	-7810
▁exposed	-7811
▁frowned	-7812
▁glances	-7813
▁restore	-7814
▁timidly	-7815
▁concerns	-7816
▁Wickfield	-7817
▁distressed	-7818
▁respectful	-7819
▁housekeeper	-7820
igs	-7821
ingle	-7822
▁Cran	-7823
▁lawn	-7824
▁rosy	-7825
▁shan	-7826
rigory	-7827
▁idiot	-7828
▁closing	-7829
▁rolling	-7830
▁commenced	-7831
▁convenient	-7832
▁perceiving	-7833
▁prosecutor	-7834
▁resentment	-7835
▁overwhelmed	-7836
ON	-7837
rat	-7838
?...	-7839
oked	-7840
▁net	-7841
▁rags	-7842
▁pushing	-7843
▁tempest	-7844
▁afforded	-7845
▁conveyed	-7846
▁division	-7847
▁relative	-7848
▁commanded	-7849
▁Buckingham	-7850
▁conception	-7851
:--	-7852
iel	-7853
met	-7854
ávl	-7855
adle	-7856
usha	-7857
▁Cra	-7858
abled	-7859
ucked	-7860
▁Gard	-7861
▁anch	-7862
▁jail	-7863
▁rear	-7864
▁Hence	-7865
▁colle	-7866
▁curls	-7867
▁exhib	-7868
▁steep	-7869
▁facing	-7870
▁invalid	-7871
▁outward	-7872
▁partial	-7873
▁romance	-7874
▁Russians	-7875
▁commence	-7876
▁disliked	-7877
▁presents	-7878
▁vexation	-7879
▁dignified	-7880
▁resemblance	-7881
AR	-7882
Mad	-7883
ipt	-7884
amaz	-7885
omed	-7886
▁haz	-7887
▁voy	-7888
ascon	-7889
ushes	-7890
▁acts	-7891
▁boot	-7892
▁cush	-7893
▁spin	-7894
▁vest	-7895
abetha	-7896
herent	-7897
▁folks	-7898
▁impet	-7899
▁bodies	-7900
▁daring	-7901
▁subtle	-7902
▁tables	-7903
▁throng	-7904
ustrious	-7905
▁destined	-7906
▁knitting	-7907
▁completed	-7908
▁swallowed	-7909
▁traveller	-7910
▁questioned	-7911
▁ped	-7912
aveta	-7913
oping	-7914
▁Bark	-7915
▁Marya	-7916
▁bloss	-7917
▁coast	-7918
▁fairy	-7919
▁punct	-7920
▁driver	-7921
▁morrow	-7922
▁provin	-7923
olkónski	-7924
▁Grigory	-7925
▁caution	-7926
▁grasped	-7927
fashioned	-7928
▁Scotland	-7929
▁differently	-7930
▁preparation	-7931
cap	-7932
agne	-7933
agon	-7934
bear	-7935
shaw	-7936
assed	-7937
bably	-7938
going	-7939
ossim	-7940
▁stom	-7941
amazov	-7942
▁First	-7943
▁kinds	-7944
▁pages	-7945
▁stoop	-7946
▁bowing	-7947
▁compet	-7948
▁mirror	-7949
▁answers	-7950
▁harmony	-7951
▁resolve	-7952
▁pressure	-7953
▁fantastic	-7954
▁interpret	-7955
▁expressive	-7956
▁exclamation	-7957
aign	-7958
cant	-7959
▁bay	-7960
▁loo	-7961
aving	-7962
ights	-7963
uiver	-7964
▁Like	-7965
▁Pont	-7966
▁surm	-7967
▁trap	-7968
course	-7969
llable	-7970
▁schol	-7971
▁union	-7972
▁behave	-7973
enceslas	-7974
▁Fernand	-7975
▁disease	-7976
▁dispute	-7977
▁ecstasy	-7978
▁happier	-7979
Gentlemen	-7980
▁appropri	-7981
▁delicious	-7982
▁displayed	-7983
▁unexpectedly	-7984
▁Jer	-7985
every	-7986
shire	-7987
▁Mond	-7988
▁cock	-7989
▁duel	-7990
▁sarc	-7991
▁skirt	-7992
aration	-7993
inement	-7994
▁Gascon	-7995
▁amidst	-7996
▁begins	-7997
▁injury	-7998
▁problem	-7999
▁declined	-8000
▁propriety	-8001
▁encouragement	-8002
ré	-8003
vat	-8004
ares	-8005
lets	-8006
▁Cart	-8007
▁Papa	-8008
▁beer	-8009
▁conj	-8010
▁deaf	-8011
▁ratt	-8012
▁soil	-8013
▁wing	-8014
entric	-8015
▁farew	-8016
▁grant	-8017
▁Walter	-8018
▁defect	-8019
▁fitted	-8020
▁invent	-8021
▁releas	-8022
hensible	-8023
uiverful	-8024
▁Adeline	-8025
▁Marshal	-8026
▁exasper	-8027
▁placing	-8028
▁totally	-8029
▁creation	-8030
▁enjoying	-8031
▁fourteen	-8032
▁measures	-8033
▁snatched	-8034
▁tendency	-8035
▁indignant	-8036
▁temptation	-8037
▁introduction	-8038
Eh	-8039
fey	-8040
ucc	-8041
Does	-8042
gent	-8043
kers	-8044
sman	-8045
▁Ric	-8046
▁jer	-8047
icted	-8048
▁Coss	-8049
▁chem	-8050
▁dean	-8051
▁dumb	-8052
▁owed	-8053
▁prey	-8054
▁spec	-8055
▁angle	-8056
▁bones	-8057
▁exerc	-8058
▁insur	-8059
▁lunch	-8060
▁model	-8061
inating	-8062
ouncing	-8063
▁exists	-8064
▁shared	-8065
▁sullen	-8066
▁waving	-8067
omething	-8068
▁glowing	-8069
▁renewed	-8070
▁tremend	-8071
▁symptoms	-8072
▁admirable	-8073
▁narrative	-8074
▁obedience	-8075
▁infinitely	-8076
▁successful	-8077
▁Je	-8078
▁Ut	-8079
orce	-8080
riot	-8081
udes	-8082
Which	-8083
▁Hart	-8084
▁sobs	-8085
▁boast	-8086
▁worry	-8087
because	-8088
▁attain	-8089
▁horrid	-8090
▁lackey	-8091
▁naught	-8092
▁scream	-8093
▁serene	-8094
▁Cossack	-8095
▁awfully	-8096
▁barrier	-8097
▁nations	-8098
▁campaign	-8099
▁Mansfield	-8100
▁dismissed	-8101
▁interfere	-8102
▁multitude	-8103
▁readiness	-8104
▁significance	-8105
AN	-8106
alt	-8107
ama	-8108
kov	-8109
▁gri	-8110
adise	-8111
trees	-8112
water	-8113
▁liqu	-8114
▁sins	-8115
▁tram	-8116
▁woke	-8117
feyrac	-8118
ifully	-8119
▁apple	-8120
▁local	-8121
▁mirth	-8122
▁prayed	-8123
▁animals	-8124
▁annoyed	-8125
▁justify	-8126
▁Stanhope	-8127
▁ascended	-8128
▁farewell	-8129
▁hopeless	-8130
▁moonlight	-8131
▁passengers	-8132
▁surprising	-8133
▁fashionable	-8134
”;	-8135
Has	-8136
_,”	-8137
hem	-8138
▁iv	-8139
Pray	-8140
eyed	-8141
vous	-8142
▁Thy	-8143
▁awe	-8144
ology	-8145
▁fund	-8146
▁hasn	-8147
▁moan	-8148
▁Julia	-8149
▁Place	-8150
▁Scrap	-8151
▁Shall	-8152
▁stare	-8153
▁fought	-8154
▁rebell	-8155
▁waking	-8156
▁rubbing	-8157
▁prudence	-8158
▁replaced	-8159
▁severely	-8160
▁consented	-8161
▁travelled	-8162
▁breathless	-8163
▁increasing	-8164
▁maintained	-8165
het	-8166
utch	-8167
▁ram	-8168
berry	-8169
▁Pott	-8170
▁Pávl	-8171
▁butt	-8172
▁whit	-8173
cerity	-8174
igning	-8175
▁avail	-8176
▁brows	-8177
oration	-8178
▁Square	-8179
▁Temple	-8180
▁batter	-8181
▁brings	-8182
▁hinder	-8183
▁emerged	-8184
▁civility	-8185
▁uttering	-8186
▁Frederick	-8187
▁resembled	-8188
▁Courfeyrac	-8189
▁obligation	-8190
▁respectfully	-8191
Le	-8192
nut	-8193
ands	-8194
▁Ali	-8195
▁Jan	-8196
▁Sol	-8197
▁ded	-8198
astle	-8199
ievna	-8200
▁Lise	-8201
▁agon	-8202
▁abuse	-8203
▁mustn	-8204
▁ornam	-8205
▁sugar	-8206
▁breeze	-8207
▁incons	-8208
▁Spanish	-8209
▁deceive	-8210
▁mission	-8211
▁mixture	-8212
▁stomach	-8213
▁imprison	-8214
▁Karamazov	-8215
▁Wenceslas	-8216
▁neglected	-8217
▁willingly	-8218
▁tranquillity	-8219
Or	-8220
jac	-8221
asha	-8222
pent	-8223
▁bark	-8224
▁mask	-8225
areton	-8226
▁shows	-8227
▁tutor	-8228
▁Nature	-8229
▁elbows	-8230
▁louder	-8231
▁resign	-8232
▁sentin	-8233
▁trades	-8234
▁Durande	-8235
▁monarch	-8236
▁secured	-8237
▁deprived	-8238
▁Lizabetha	-8239
▁persisted	-8240
▁Monseigneur	-8241
▁Prokofievna	-8242
▁etc	-8243
urday	-8244
uting	-8245
▁Bard	-8246
▁Davy	-8247
▁fren	-8248
▁lake	-8249
▁publ	-8250
▁Royal	-8251
▁petty	-8252
▁stove	-8253
erences	-8254
▁curate	-8255
atisfied	-8256
▁belongs	-8257
▁confirm	-8258
▁landing	-8259
▁prudent	-8260
▁radiant	-8261
▁attempts	-8262
▁attorney	-8263
▁hurrying	-8264
▁misunder	-8265
▁monaster	-8266
▁situated	-8267
▁momentary	-8268
▁occasioned	-8269
▁Nightingale	-8270
▁application	-8271
▁improvement	-8272
’.	-8273
▁Es	-8274
▁cu	-8275
Hush	-8276
Stop	-8277
apers	-8278
inger	-8279
▁dusk	-8280
▁fret	-8281
▁lust	-8282
▁whim	-8283
ctions	-8284
icable	-8285
▁Sammy	-8286
▁winds	-8287
forming	-8288
ossible	-8289
▁dashed	-8290
▁issued	-8291
▁warned	-8292
▁haughty	-8293
▁marvell	-8294
▁numbers	-8295
▁railway	-8296
▁results	-8297
▁seizing	-8298
▁lordship	-8299
▁gathering	-8300
▁hereafter	-8301
há	-8302
bro	-8303
nex	-8304
rou	-8305
aine	-8306
aleb	-8307
riev	-8308
▁Cam	-8309
▁Duc	-8310
▁cul	-8311
▁Huns	-8312
▁fest	-8313
itious	-8314
▁indef	-8315
▁phant	-8316
▁steel	-8317
▁unacc	-8318
▁Hannah	-8319
▁firing	-8320
▁halted	-8321
▁passes	-8322
▁rascal	-8323
▁stroke	-8324
▁chanced	-8325
▁gardens	-8326
▁granted	-8327
▁readers	-8328
▁virtues	-8329
▁doctrine	-8330
▁habitual	-8331
▁memories	-8332
▁sweetness	-8333
gone	-8334
hern	-8335
uity	-8336
▁buck	-8337
▁keys	-8338
▁plac	-8339
▁sons	-8340
icient	-8341
▁falls	-8342
▁wives	-8343
ributed	-8344
▁Nobody	-8345
▁claims	-8346
▁denied	-8347
▁eighty	-8348
▁prodig	-8349
▁Bardell	-8350
▁corrupt	-8351
▁Lizaveta	-8352
▁mournful	-8353
▁platform	-8354
▁quantity	-8355
▁contrived	-8356
▁eccentric	-8357
▁indulgence	-8358
▁irresistible	-8359
dot	-8360
ouch	-8361
▁Ver	-8362
▁tie	-8363
----”	-8364
about	-8365
rooms	-8366
three	-8367
▁sire	-8368
atrick	-8369
▁Lydia	-8370
▁feast	-8371
▁impud	-8372
▁vault	-8373
▁bushes	-8374
▁cathed	-8375
▁liking	-8376
▁remove	-8377
▁rubbed	-8378
▁strain	-8379
▁volume	-8380
▁cavalry	-8381
▁commands	-8382
▁unworthy	-8383
▁quivering	-8384
▁stockings	-8385
▁cheerfully	-8386
▁perfection	-8387
ipe	-8388
gels	-8389
rust	-8390
▁Jes	-8391
▁Job	-8392
▁Tim	-8393
▁Does	-8394
▁bend	-8395
▁roar	-8396
▁trim	-8397
▁wont	-8398
▁accur	-8399
▁stret	-8400
▁drawer	-8401
▁challen	-8402
▁failure	-8403
▁harness	-8404
▁scrutin	-8405
▁sixteen	-8406
▁vaguely	-8407
▁Cranford	-8408
▁Saturday	-8409
▁Bolkónski	-8410
▁attentive	-8411
);	-8412
elf	-8413
lest	-8414
▁Bal	-8415
aired	-8416
▁Musg	-8417
▁Soon	-8418
▁ejac	-8419
▁pear	-8420
ensity	-8421
haired	-8422
ignant	-8423
▁gaily	-8424
▁plant	-8425
▁Bertie	-8426
▁pencil	-8427
▁ribbon	-8428
▁stated	-8429
▁courtes	-8430
▁cruelty	-8431
▁earthly	-8432
▁notions	-8433
▁sinking	-8434
▁Whatever	-8435
▁purchase	-8436
▁sergeant	-8437
▁stammered	-8438
▁struggled	-8439
▁intercourse	-8440
▁expectations	-8441
III	-8442
aux	-8443
ader	-8444
oups	-8445
iated	-8446
ppers	-8447
venty	-8448
▁Ming	-8449
▁Pray	-8450
▁abode	-8451
▁agent	-8452
▁epoch	-8453
▁femin	-8454
▁fence	-8455
▁plump	-8456
▁screw	-8457
▁Govern	-8458
▁Prynne	-8459
▁adding	-8460
▁behalf	-8461
▁intrig	-8462
▁joyful	-8463
▁shouts	-8464
▁advised	-8465
▁phrases	-8466
▁provide	-8467
▁speaker	-8468
▁Although	-8469
▁backward	-8470
▁referred	-8471
▁suitable	-8472
▁horseback	-8473
▁transport	-8474
Wait	-8475
enne	-8476
lers	-8477
▁oft	-8478
agues	-8479
enses	-8480
ersed	-8481
ooped	-8482
▁Jond	-8483
▁Mark	-8484
▁clam	-8485
▁dial	-8486
▁meek	-8487
church	-8488
▁Caval	-8489
▁Marie	-8490
▁Sever	-8491
▁veins	-8492
▁Avenel	-8493
▁crimes	-8494
▁guided	-8495
▁hinted	-8496
▁robbed	-8497
▁Frances	-8498
▁extingu	-8499
▁depended	-8500
▁knocking	-8501
▁virtuous	-8502
▁betrothed	-8503
▁hesitating	-8504
▁yourselves	-8505
EN	-8506
▁z	-8507
▁Bag	-8508
▁Gen	-8509
jeant	-8510
throp	-8511
▁noon	-8512
▁zeal	-8513
atives	-8514
bridge	-8515
▁Caleb	-8516
▁Nancy	-8517
▁intol	-8518
rection	-8519
▁candid	-8520
▁invite	-8521
▁ladder	-8522
▁luxury	-8523
▁punish	-8524
▁comrade	-8525
▁discipl	-8526
▁healthy	-8527
▁Brownlow	-8528
▁contract	-8529
▁feminine	-8530
▁severity	-8531
▁newspaper	-8532
▁communicate	-8533
▁recollected	-8534
▁mechanically	-8535
▁contemplation	-8536
lla	-8537
ros	-8538
ums	-8539
bber	-8540
cock	-8541
rown	-8542
▁nod	-8543
canti	-8544
▁brut	-8545
▁cens	-8546
coming	-8547
▁Black	-8548
▁arise	-8549
▁bells	-8550
▁brood	-8551
▁drift	-8552
▁guine	-8553
▁intox	-8554
▁dismay	-8555
▁loaded	-8556
▁unluck	-8557
fortunes	-8558
▁Hareton	-8559
▁faintly	-8560
▁forming	-8561
▁rightly	-8562
cientific	-8563
▁Catholic	-8564
▁adjutant	-8565
▁alarming	-8566
▁dreaming	-8567
▁punished	-8568
▁secretly	-8569
▁artillery	-8570
▁foundation	-8571
▁neighborhood	-8572
OU	-8573
iate	-8574
chess	-8575
eller	-8576
uated	-8577
▁Sign	-8578
▁push	-8579
▁toil	-8580
▁trib	-8581
▁Grand	-8582
ensions	-8583
▁impart	-8584
▁unfold	-8585
▁begging	-8586
▁guarded	-8587
▁opposed	-8588
▁sublime	-8589
▁attained	-8590
▁demonstr	-8591
▁evenings	-8592
▁continual	-8593
▁painfully	-8594
▁accomplish	-8595
▁development	-8596
zes	-8597
serv	-8598
wall	-8599
▁Dan	-8600
chook	-8601
rophe	-8602
ummer	-8603
▁corn	-8604
▁deck	-8605
▁heir	-8606
▁spell	-8607
▁trunk	-8608
▁deadly	-8609
▁screen	-8610
▁Mingott	-8611
▁bottles	-8612
▁condemn	-8613
▁supreme	-8614
▁allusion	-8615
▁condesce	-8616
▁eminence	-8617
▁executed	-8618
▁animation	-8619
▁happening	-8620
▁requested	-8621
▁Cavalcanti	-8622
▁peculiarly	-8623
▁restrained	-8624
▁impressions	-8625
▁satisfactory	-8626
yn	-8627
eur	-8628
inb	-8629
iqu	-8630
mar	-8631
vest	-8632
▁Ven	-8633
▁dew	-8634
▁sob	-8635
▁voc	-8636
sters	-8637
▁Adam	-8638
▁Vass	-8639
▁puff	-8640
▁soup	-8641
▁Basil	-8642
▁ahead	-8643
▁swore	-8644
▁wiped	-8645
iveness	-8646
▁affirm	-8647
▁needle	-8648
▁conquer	-8649
▁holiday	-8650
▁reverie	-8651
▁superst	-8652
▁wrought	-8653
▁comrades	-8654
▁overlook	-8655
▁promptly	-8656
▁rational	-8657
▁thankful	-8658
umblechook	-8659
▁attending	-8660
▁sincerity	-8661
▁bitterness	-8662
▁precaution	-8663
▁resolutely	-8664
▁necessarily	-8665
▁proceedings	-8666
▁deliberately	-8667
IN	-8668
ko	-8669
rif	-8670
Upon	-8671
hast	-8672
inder	-8673
▁flag	-8674
enched	-8675
idding	-8676
keness	-8677
ograph	-8678
▁Franc	-8679
▁bears	-8680
▁brass	-8681
▁couch	-8682
▁debts	-8683
▁Mattie	-8684
▁catast	-8685
▁imprud	-8686
▁matron	-8687
▁speaks	-8688
▁statue	-8689
▁Instead	-8690
▁depends	-8691
▁elegance	-8692
▁preoccup	-8693
▁requires	-8694
▁annoyance	-8695
sch	-8696
tee	-8697
▁Er	-8698
hour	-8699
icks	-8700
▁Acc	-8701
▁Hél	-8702
▁bul	-8703
▁fed	-8704
▁nut	-8705
▁Beck	-8706
▁Holy	-8707
▁lion	-8708
▁prel	-8709
▁swim	-8710
affold	-8711
rivial	-8712
urable	-8713
▁apron	-8714
▁tyran	-8715
▁Manette	-8716
▁exclaim	-8717
▁refusal	-8718
▁spoiled	-8719
▁covering	-8720
▁external	-8721
▁galloped	-8722
▁purposes	-8723
▁rapidity	-8724
▁scaffold	-8725
▁falsehood	-8726
▁forbidden	-8727
▁reckoning	-8728
▁restraint	-8729
▁expedition	-8730
▁perplexity	-8731
▁Pumblechook	-8732
▁misfortunes	-8733
▁undoubtedly	-8734
▁unfortunately	-8735
awn	-8736
dis	-8737
owl	-8738
gend	-8739
▁job	-8740
▁lun	-8741
ifted	-8742
oking	-8743
uccio	-8744
▁Fort	-8745
▁bars	-8746
▁tact	-8747
urious	-8748
▁Pross	-8749
▁dilig	-8750
▁nails	-8751
▁ardent	-8752
▁boldly	-8753
▁chaise	-8754
coloured	-8755
▁Several	-8756
▁Martians	-8757
▁disguise	-8758
▁stirring	-8759
▁flattered	-8760
▁temporary	-8761
▁apartments	-8762
▁procession	-8763
▁performance	-8764
▁thoughtfully	-8765
▁acquaintances	-8766
▁ic	-8767
byad	-8768
rawn	-8769
shin	-8770
▁Mik	-8771
hanks	-8772
▁rows	-8773
▁Brand	-8774
▁Honey	-8775
▁Other	-8776
▁ashes	-8777
▁cheap	-8778
▁clung	-8779
▁insin	-8780
▁mayor	-8781
▁dreary	-8782
▁emphas	-8783
▁constit	-8784
▁founded	-8785
▁grieved	-8786
▁seventy	-8787
▁sobbing	-8788
▁warrant	-8789
▁mourning	-8790
▁senseless	-8791
▁sensitive	-8792
▁attendance	-8793
▁personally	-8794
▁endeavouring	-8795
▁indescribable	-8796
pow	-8797
▁Men	-8798
▁sem	-8799
astes	-8800
▁Bill	-8801
▁aged	-8802
▁vers	-8803
▁wink	-8804
avriky	-8805
▁penit	-8806
▁relax	-8807
▁Parfen	-8808
▁advers	-8809
▁reconc	-8810
▁reform	-8811
▁string	-8812
▁thrill	-8813
▁Rostóvs	-8814
▁enabled	-8815
▁fathers	-8816
▁hunting	-8817
▁lowered	-8818
▁miracle	-8819
▁student	-8820
▁trivial	-8821
▁honoured	-8822
▁majority	-8823
▁Jondrette	-8824
▁fragments	-8825
▁searching	-8826
▁respecting	-8827
▁scientific	-8828
▁independence	-8829
IS	-8830
See	-8831
lig	-8832
rep	-8833
lais	-8834
were	-8835
▁Cal	-8836
▁San	-8837
▁fox	-8838
▁gru	-8839
eches	-8840
guard	-8841
roval	-8842
▁bath	-8843
▁pang	-8844
▁stag	-8845
ipping	-8846
▁Pryor	-8847
▁exult	-8848
▁honey	-8849
▁kings	-8850
▁talks	-8851
▁using	-8852
▁garret	-8853
▁occupy	-8854
▁writer	-8855
▁Feather	-8856
▁surgeon	-8857
▁youngest	-8858
▁Bertuccio	-8859
▁Hartfield	-8860
▁Presently	-8861
▁cathedral	-8862
▁justified	-8863
▁comfortably	-8864
Pr	-8865
omb	-8866
six	-8867
uly	-8868
Some	-8869
text	-8870
▁Red	-8871
▁vir	-8872
eting	-8873
▁Darn	-8874
affles	-8875
▁bestow	-8876
▁escort	-8877
▁judges	-8878
▁unseen	-8879
▁Jackson	-8880
▁limited	-8881
▁Eminence	-8882
▁measured	-8883
▁vigorous	-8884
▁comforted	-8885
▁construct	-8886
▁privilege	-8887
▁traversed	-8888
▁responsible	-8889
eu	-8890
lar	-8891
aves	-8892
hole	-8893
shot	-8894
oting	-8895
▁Mell	-8896
▁copy	-8897
▁eyel	-8898
Excuse	-8899
▁deeds	-8900
▁goose	-8901
▁hired	-8902
▁moist	-8903
▁wreck	-8904
unction	-8905
▁groups	-8906
▁retain	-8907
▁traged	-8908
▁washed	-8909
▁Morland	-8910
▁comment	-8911
▁signora	-8912
▁smaller	-8913
▁firmness	-8914
▁likeness	-8915
▁persever	-8916
▁gratified	-8917
▁monastery	-8918
him	-8919
asty	-8920
atin	-8921
iend	-8922
▁Mur	-8923
icial	-8924
▁Life	-8925
▁bade	-8926
▁beck	-8927
icking	-8928
ratión	-8929
rusted	-8930
▁Revol	-8931
▁ninet	-8932
▁sewer	-8933
▁tower	-8934
▁tread	-8935
▁Briggs	-8936
▁Island	-8937
▁Lowick	-8938
▁hypocr	-8939
▁profit	-8940
▁tragic	-8941
▁marshal	-8942
▁mothers	-8943
▁refrain	-8944
▁studies	-8945
▁arriving	-8946
▁chambers	-8947
▁retained	-8948
▁teachers	-8949
rehensible	-8950
▁Bagratión	-8951
▁contribut	-8952
▁finishing	-8953
▁observations	-8954
laid	-8955
▁Dim	-8956
adays	-8957
antin	-8958
erget	-8959
▁adjo	-8960
▁pour	-8961
arenka	-8962
licted	-8963
ossess	-8964
▁curse	-8965
▁shell	-8966
atching	-8967
respect	-8968
▁brains	-8969
▁jacket	-8970
▁theirs	-8971
▁transl	-8972
▁energet	-8973
▁talents	-8974
▁approved	-8975
▁despised	-8976
▁educated	-8977
▁exertion	-8978
▁garments	-8979
▁lingered	-8980
▁extremity	-8981
▁obscurity	-8982
▁approbation	-8983
En	-8984
▁lil	-8985
▁Cham	-8986
▁Crom	-8987
▁alas	-8988
▁load	-8989
▁tent	-8990
▁tour	-8991
ements	-8992
▁Mamma	-8993
▁bored	-8994
▁fools	-8995
▁fount	-8996
▁satin	-8997
▁Carton	-8998
▁Lebyad	-8999
▁closet	-9000
▁detest	-9001
▁roared	-9002
▁Mavriky	-9003
▁discont	-9004
▁sailors	-9005
▁shooting	-9006
▁suspense	-9007
▁discharge	-9008
▁regarding	-9009
▁utterance	-9010
▁benefactor	-9011
▁containing	-9012
▁generation	-9013
▁Honeychurch	-9014
ES	-9015
!_”	-9016
pul	-9017
▁Tw	-9018
bred	-9019
cest	-9020
omer	-9021
ophy	-9022
pson	-9023
iency	-9024
▁Happ	-9025
▁ante	-9026
▁blew	-9027
▁buff	-9028
▁adopt	-9029
▁estim	-9030
▁etern	-9031
▁noted	-9032
▁scale	-9033
▁seize	-9034
▁Surely	-9035
▁wounds	-9036
cription	-9037
▁Francis	-9038
▁blowing	-9039
▁slender	-9040
▁American	-9041
▁oppressed	-9042
▁glittering	-9043
▁authorities	-9044
tt	-9045
adj	-9046
rol	-9047
▁om	-9048
ping	-9049
▁Dow	-9050
actly	-9051
chard	-9052
▁isol	-9053
▁tune	-9054
▁Bazin	-9055
▁Greek	-9056
▁holds	-9057
▁stool	-9058
▁confer	-9059
▁dearly	-9060
▁faster	-9061
▁finest	-9062
▁malice	-9063
▁rescue	-9064
▁sermon	-9065
▁sleeve	-9066
▁tastes	-9067
▁Newland	-9068
▁Raffles	-9069
▁Russell	-9070
▁Through	-9071
▁concert	-9072
▁doctors	-9073
▁filling	-9074
▁hostess	-9075
▁Pávlovna	-9076
▁chaplain	-9077
▁gardener	-9078
▁interior	-9079
▁irritation	-9080
▁literature	-9081
▁i	-9082
vag	-9083
▁Su	-9084
post	-9085
▁Str	-9086
▁plot	-9087
▁poem	-9088
Father	-9089
kshire	-9090
levard	-9091
udding	-9092
uesday	-9093
▁fores	-9094
▁Ilusha	-9095
▁Jingle	-9096
▁enable	-9097
▁joyous	-9098
▁swords	-9099
▁lecture	-9100
▁nursery	-9101
▁pretext	-9102
▁convince	-9103
▁extravag	-9104
▁reported	-9105
▁resigned	-9106
▁President	-9107
▁discharged	-9108
▁preference	-9109
▁tremendous	-9110
adv	-9111
rer	-9112
ange	-9113
inqu	-9114
uary	-9115
▁Alp	-9116
▁Say	-9117
▁axe	-9118
inery	-9119
▁Park	-9120
▁crew	-9121
▁inse	-9122
estion	-9123
▁adorn	-9124
▁coadj	-9125
▁fifth	-9126
▁needn	-9127
▁wiser	-9128
ocratic	-9129
▁barrel	-9130
▁sealed	-9131
▁throne	-9132
▁voyage	-9133
▁Hunsden	-9134
▁endured	-9135
▁nodding	-9136
▁sadness	-9137
▁medicine	-9138
▁retreated	-9139
▁suspended	-9140
▁carelessly	-9141
▁appearances	-9142
Am	-9143
Av	-9144
cont	-9145
dled	-9146
ripp	-9147
bited	-9148
▁scra	-9149
action	-9150
▁Julie	-9151
▁Lotty	-9152
▁Lynde	-9153
▁White	-9154
▁giant	-9155
▁toast	-9156
▁toile	-9157
▁abomin	-9158
▁Austria	-9159
▁Brandon	-9160
▁Varenka	-9161
▁apprehe	-9162
▁ceremon	-9163
▁enlight	-9164
▁steamer	-9165
▁stooped	-9166
▁polished	-9167
▁soothing	-9168
▁inquiring	-9169
▁regretted	-9170
▁historians	-9171
ded	-9172
▁Hy	-9173
▁Sk	-9174
▁tu	-9175
aret	-9176
aved	-9177
stri	-9178
▁Ber	-9179
▁aby	-9180
cross	-9181
yevna	-9182
▁Most	-9183
▁Rame	-9184
▁pert	-9185
▁crazy	-9186
▁flock	-9187
▁hints	-9188
▁newly	-9189
▁prize	-9190
▁weigh	-9191
▁Darnay	-9192
▁insign	-9193
▁packet	-9194
▁Spenlow	-9195
▁Welland	-9196
▁aroused	-9197
▁cabinet	-9198
▁slumber	-9199
▁stamped	-9200
▁admiring	-9201
▁assisted	-9202
▁foreseen	-9203
▁invented	-9204
▁literary	-9205
▁pistoles	-9206
▁supplied	-9207
▁unreason	-9208
▁promising	-9209
▁management	-9210
▁spectators	-9211
▁Featherstone	-9212
▁responsibility	-9213
aps	-9214
loo	-9215
pin	-9216
aces	-9217
▁Has	-9218
dened	-9219
▁mare	-9220
uppose	-9221
▁Fitzp	-9222
▁altar	-9223
▁brook	-9224
▁cigar	-9225
▁felic	-9226
▁irreg	-9227
▁pound	-9228
▁Barkis	-9229
▁Pocket	-9230
▁Thorpe	-9231
▁bustle	-9232
▁cavern	-9233
▁chapel	-9234
▁gaiety	-9235
▁masses	-9236
▁matrim	-9237
▁peeped	-9238
▁casting	-9239
▁helping	-9240
▁inherit	-9241
▁leagues	-9242
▁realize	-9243
▁baroness	-9244
▁sinister	-9245
▁teaching	-9246
▁Rochefort	-9247
▁secretary	-9248
▁strongest	-9249
▁witnessed	-9250
▁churchyard	-9251
▁Fitzpatrick	-9252
▁executioner	-9253
imer	-9254
pire	-9255
urst	-9256
▁sag	-9257
▁tax	-9258
matic	-9259
uther	-9260
▁cash	-9261
▁fits	-9262
▁runs	-9263
▁unan	-9264
▁Guern	-9265
▁grate	-9266
▁issue	-9267
▁maybe	-9268
▁renew	-9269
▁shops	-9270
ariably	-9271
▁solely	-9272
▁vacant	-9273
aneously	-9274
▁pension	-9275
▁relieve	-9276
▁serving	-9277
▁passages	-9278
▁released	-9279
▁shepherd	-9280
▁transfer	-9281
▁visiting	-9282
▁imperfect	-9283
▁remainder	-9284
▁conjecture	-9285
▁displeased	-9286
▁newspapers	-9287
car	-9288
áty	-9289
acit	-9290
eman	-9291
good	-9292
quar	-9293
▁agg	-9294
ilful	-9295
lying	-9296
▁brig	-9297
erland	-9298
▁Which	-9299
▁abyss	-9300
▁coinc	-9301
▁incom	-9302
▁jolly	-9303
▁seats	-9304
▁Indian	-9305
▁Listen	-9306
▁access	-9307
▁coolly	-9308
▁emphat	-9309
▁harder	-9310
▁injust	-9311
▁review	-9312
▁tossed	-9313
▁artific	-9314
▁whistle	-9315
▁Waterloo	-9316
▁emphasis	-9317
▁expenses	-9318
▁generals	-9319
▁husbands	-9320
▁national	-9321
▁peaceful	-9322
▁pursuing	-9323
▁conscient	-9324
▁adventures	-9325
▁invariably	-9326
▁marvellous	-9327
▁occasional	-9328
▁displeasure	-9329
▁extinguished	-9330
Ad	-9331
Ar	-9332
Get	-9333
Our	-9334
Ren	-9335
aws	-9336
ufa	-9337
▁na	-9338
eena	-9339
pses	-9340
▁Rep	-9341
▁Tow	-9342
▁lur	-9343
▁Cole	-9344
▁Cons	-9345
▁Noah	-9346
▁canv	-9347
▁seal	-9348
▁tool	-9349
▁upro	-9350
▁Ramee	-9351
▁accus	-9352
▁ambit	-9353
▁token	-9354
▁Andrey	-9355
▁anchor	-9356
▁dissip	-9357
▁dissol	-9358
▁echoed	-9359
▁gladly	-9360
▁leaped	-9361
▁recess	-9362
▁termin	-9363
▁apology	-9364
▁planted	-9365
▁twisted	-9366
▁wealthy	-9367
mpossible	-9368
▁Guernsey	-9369
▁Trotwood	-9370
▁delirium	-9371
▁elements	-9372
▁happiest	-9373
▁Bonaparte	-9374
▁eloquence	-9375
▁irregular	-9376
▁attractive	-9377
▁insignific	-9378
▁encouraging	-9379
▁interference	-9380
vy	-9381
bel	-9382
bacc	-9383
ihil	-9384
▁Sha	-9385
▁viv	-9386
aston	-9387
inous	-9388
▁Sher	-9389
▁drag	-9390
▁sham	-9391
▁trad	-9392
▁vile	-9393
▁Admir	-9394
▁Being	-9395
▁amend	-9396
▁dwelt	-9397
▁outra	-9398
▁range	-9399
▁surre	-9400
idelity	-9401
istress	-9402
▁placid	-9403
▁salary	-9404
▁feature	-9405
▁indulge	-9406
▁assented	-9407
▁dialogue	-9408
▁distrust	-9409
▁humility	-9410
▁nobility	-9411
▁speedily	-9412
▁stepping	-9413
▁conquered	-9414
▁deposited	-9415
▁injustice	-9416
▁reverence	-9417
▁benevolent	-9418
▁discretion	-9419
▁penetrated	-9420
▁declaration	-9421
mor	-9422
iazh	-9423
orth	-9424
▁Haw	-9425
▁Lau	-9426
liest	-9427
otest	-9428
▁Cont	-9429
▁Thee	-9430
▁bald	-9431
▁merc	-9432
▁sous	-9433
▁thir	-9434
▁yawn	-9435
▁Latin	-9436
▁cabin	-9437
▁dried	-9438
▁stupe	-9439
▁Castle	-9440
▁Should	-9441
▁Sviazh	-9442
▁clerks	-9443
▁connex	-9444
▁proofs	-9445
▁reveal	-9446
▁Tuesday	-9447
▁derived	-9448
▁missing	-9449
▁nowhere	-9450
▁oneself	-9451
▁temples	-9452
▁champagne	-9453
▁excessive	-9454
▁indispens	-9455
▁seventeen	-9456
▁tormented	-9457
▁Revolution	-9458
▁earnestness	-9459
lie	-9460
must	-9461
seem	-9462
▁Nic	-9463
▁Pre	-9464
▁cris	-9465
▁doth	-9466
▁enqu	-9467
▁lent	-9468
▁rubb	-9469
▁vous	-9470
Mother	-9471
Renaud	-9472
▁Jenky	-9473
▁Switz	-9474
▁decis	-9475
▁punch	-9476
▁towns	-9477
henomen	-9478
itching	-9479
liction	-9480
▁demean	-9481
▁frenzy	-9482
▁knight	-9483
▁wander	-9484
▁conspic	-9485
▁decline	-9486
▁demands	-9487
▁envelop	-9488
▁footing	-9489
▁reports	-9490
▁weighed	-9491
▁hundreds	-9492
▁piercing	-9493
▁procured	-9494
▁Everybody	-9495
▁Yorkshire	-9496
▁coadjutor	-9497
▁neighbors	-9498
▁sustained	-9499
▁flattering	-9500
▁travellers	-9501
▁catastrophe	-9502
▁hospitality	-9503
Al	-9504
fig	-9505
sars	-9506
▁Des	-9507
▁Jam	-9508
▁Luy	-9509
▁Ves	-9510
▁ung	-9511
bacco	-9512
essor	-9513
since	-9514
▁foul	-9515
▁matt	-9516
▁tales	-9517
▁Monday	-9518
▁angels	-9519
▁awaken	-9520
▁bachel	-9521
▁limits	-9522
▁manufa	-9523
▁wildly	-9524
▁balance	-9525
▁citizen	-9526
▁fancies	-9527
▁pattern	-9528
▁tragedy	-9529
▁calmness	-9530
▁shrugged	-9531
▁Sviazhsky	-9532
▁venerable	-9533
▁Switzerland	-9534
▁questioning	-9535
▁cheerfulness	-9536
▁considerably	-9537
▁gratification	-9538
,_	-9539
rah	-9540
▁Bo	-9541
udge	-9542
énie	-9543
▁Vic	-9544
▁haw	-9545
▁wot	-9546
ovsky	-9547
▁rebu	-9548
▁secl	-9549
▁stor	-9550
atches	-9551
minges	-9552
▁Death	-9553
▁Scott	-9554
▁acute	-9555
▁reign	-9556
▁ruins	-9557
▁sloop	-9558
▁assent	-9559
▁column	-9560
▁merits	-9561
▁repair	-9562
▁tasted	-9563
▁Jenkyns	-9564
▁elapsed	-9565
▁enterpr	-9566
▁killing	-9567
▁release	-9568
▁swiftly	-9569
▁painting	-9570
▁phenomen	-9571
▁stooping	-9572
▁pretending	-9573
Ch	-9574
ini	-9575
itan	-9576
oles	-9577
sett	-9578
▁Oct	-9579
▁Thw	-9580
▁nic	-9581
addle	-9582
erton	-9583
ieson	-9584
átych	-9585
▁Lemb	-9586
▁Prof	-9587
▁cake	-9588
▁pine	-9589
▁shat	-9590
▁ungr	-9591
encies	-9592
▁Marfa	-9593
▁entit	-9594
▁penny	-9595
▁shill	-9596
▁songs	-9597
▁deemed	-9598
▁excite	-9599
▁immort	-9600
▁perman	-9601
▁refres	-9602
▁scared	-9603
▁drowned	-9604
▁offices	-9605
▁prevail	-9606
▁sleeves	-9607
▁Everyone	-9608
▁Jamieson	-9609
▁hesitate	-9610
▁reckoned	-9611
▁strictly	-9612
▁discussed	-9613
▁philosoph	-9614
▁descending	-9615
▁discipline	-9616
▁experiment	-9617
▁sentimental	-9618
▁inconvenience	-9619
uil	-9620
tell	-9621
tico	-9622
▁mel	-9623
utter	-9624
▁Earn	-9625
▁Snow	-9626
▁init	-9627
▁mans	-9628
▁riot	-9629
ugénie	-9630
▁fragr	-9631
▁magic	-9632
▁oblige	-9633
▁plants	-9634
▁sobbed	-9635
▁Admiral	-9636
▁disconc	-9637
▁vehicle	-9638
▁washing	-9639
▁indulged	-9640
▁joyfully	-9641
▁nowadays	-9642
▁rejected	-9643
▁syllable	-9644
interested	-9645
▁Lebyadkin	-9646
▁honorable	-9647
▁prolonged	-9648
▁distracted	-9649
▁reconciled	-9650
ias	-9651
ixt	-9652
oft	-9653
ouda	-9654
▁Lid	-9655
▁Sep	-9656
▁wen	-9657
cloth	-9658
could	-9659
ulses	-9660
urned	-9661
▁East	-9662
▁forb	-9663
▁idol	-9664
▁stim	-9665
rienne	-9666
▁Lucie	-9667
▁banks	-9668
▁carts	-9669
▁goods	-9670
▁slope	-9671
▁steal	-9672
▁Accord	-9673
▁Grange	-9674
▁adored	-9675
▁fixing	-9676
▁leader	-9677
▁pitied	-9678
▁shrill	-9679
▁chances	-9680
▁council	-9681
▁foresee	-9682
▁rapture	-9683
▁tobacco	-9684
▁promises	-9685
▁Bellaston	-9686
▁attendant	-9687
▁machinery	-9688
▁resources	-9689
▁submitted	-9690
▁substance	-9691
▁apparition	-9692
▁faithfully	-9693
▁connections	-9694
▁passionately	-9695
Ha	-9696
Stay	-9697
rars	-9698
ston	-9699
unci	-9700
▁Dev	-9701
▁Fin	-9702
▁lic	-9703
▁sou	-9704
▁vag	-9705
itory	-9706
staff	-9707
▁Bank	-9708
▁Reed	-9709
▁coal	-9710
▁gran	-9711
▁salt	-9712
▁wits	-9713
▁Aouda	-9714
▁crush	-9715
▁grows	-9716
▁knelt	-9717
▁monks	-9718
▁Luyden	-9719
▁bodily	-9720
▁dishes	-9721
▁flames	-9722
▁ragged	-9723
▁Michael	-9724
▁climbed	-9725
▁fearing	-9726
▁greeted	-9727
▁revived	-9728
▁sorrows	-9729
pressible	-9730
▁Alpátych	-9731
▁Cromwell	-9732
▁allowing	-9733
▁converse	-9734
▁faltered	-9735
▁frighten	-9736
▁gestures	-9737
▁involved	-9738
▁countries	-9739
▁developed	-9740
▁anticipated	-9741
uzz	-9742
▁Ox	-9743
háyl	-9744
racy	-9745
istak	-9746
unter	-9747
▁Camp	-9748
▁Comm	-9749
atisfa	-9750
houses	-9751
veying	-9752
▁Field	-9753
▁Monks	-9754
▁Muish	-9755
▁analy	-9756
▁flush	-9757
▁humor	-9758
▁manus	-9759
▁mouse	-9760
▁spoil	-9761
▁county	-9762
▁crisis	-9763
▁hanged	-9764
▁mantle	-9765
▁odious	-9766
▁rector	-9767
▁shabby	-9768
▁sprung	-9769
▁Cadwall	-9770
▁Medlock	-9771
▁Mikháyl	-9772
▁deepest	-9773
▁pouring	-9774
▁stately	-9775
▁superin	-9776
▁grandeur	-9777
▁petition	-9778
▁shutters	-9779
▁studying	-9780
▁uneasily	-9781
▁determine	-9782
▁solemnity	-9783
▁incredible	-9784
▁insensible	-9785
▁entertainment	-9786
Ab	-9787
etsy	-9788
▁Fed	-9789
▁Sof	-9790
▁ske	-9791
▁Card	-9792
▁Clay	-9793
▁Four	-9794
▁capr	-9795
▁rays	-9796
rating	-9797
tember	-9798
▁Utter	-9799
▁frock	-9800
▁hears	-9801
▁umbre	-9802
▁vigor	-9803
▁cursed	-9804
▁indust	-9805
▁ponder	-9806
▁summit	-9807
▁verses	-9808
▁wholes	-9809
▁Marquis	-9810
▁pettico	-9811
▁whereas	-9812
▁Parisian	-9813
▁cupboard	-9814
▁ornament	-9815
▁unmistak	-9816
▁irritable	-9817
▁prospects	-9818
▁reasoning	-9819
▁comprehens	-9820
▁confounded	-9821
▁wonderfully	-9822
▁Nikolaevitch	-9823
▁instinctively	-9824
▁considerations	-9825
’;	-9826
afe	-9827
eep	-9828
foot	-9829
ovel	-9830
qual	-9831
ussi	-9832
▁Obl	-9833
pring	-9834
▁Dear	-9835
▁Half	-9836
▁cane	-9837
▁onto	-9838
▁pool	-9839
▁rash	-9840
Please	-9841
ington	-9842
rietta	-9843
▁brute	-9844
▁folds	-9845
▁joint	-9846
▁swung	-9847
▁barbar	-9848
▁hammer	-9849
▁madman	-9850
▁marvel	-9851
▁offers	-9852
▁sunset	-9853
▁divorce	-9854
▁marched	-9855
▁panting	-9856
▁winding	-9857
▁aversion	-9858
▁kneeling	-9859
▁spending	-9860
▁standard	-9861
▁adjoining	-9862
▁centuries	-9863
▁depressed	-9864
▁intending	-9865
▁purchased	-9866
▁manuscript	-9867
▁succession	-9868
▁ungrateful	-9869
▁Cadwallader	-9870
tis	-9871
ober	-9872
plom	-9873
take	-9874
▁Jim	-9875
▁ale	-9876
▁mob	-9877
▁mun	-9878
ilion	-9879
▁Bast	-9880
▁folk	-9881
▁gait	-9882
▁sets	-9883
isting	-9884
ouched	-9885
urning	-9886
▁Emily	-9887
▁Marse	-9888
▁South	-9889
▁Think	-9890
▁physi	-9891
▁total	-9892
▁veget	-9893
▁heroic	-9894
▁inquis	-9895
▁justly	-9896
▁packed	-9897
▁Eugénie	-9898
▁naughty	-9899
▁Earnshaw	-9900
▁Muishkin	-9901
▁Musgrove	-9902
▁fountain	-9903
▁infantry	-9904
▁paradise	-9905
▁replying	-9906
▁superflu	-9907
▁inspector	-9908
▁mysteries	-9909
▁operation	-9910
▁tolerable	-9911
▁discussing	-9912
▁explaining	-9913
▁pleasantly	-9914
▁remarkably	-9915
▁Mikháylovna	-9916
vid	-9917
▁Dm	-9918
fish	-9919
izes	-9920
otes	-9921
wixt	-9922
▁Cro	-9923
▁Cru	-9924
▁gor	-9925
▁pha	-9926
▁ult	-9927
eenth	-9928
pence	-9929
▁Abbé	-9930
▁Were	-9931
▁reco	-9932
aneous	-9933
rances	-9934
▁Young	-9935
▁dense	-9936
▁tacit	-9937
▁wages	-9938
▁Oxford	-9939
▁advert	-9940
▁attire	-9941
▁cheese	-9942
▁client	-9943
▁commer	-9944
▁relish	-9945
▁sheets	-9946
ological	-9947
▁stretch	-9948
▁borrowed	-9949
▁clasping	-9950
▁ridicule	-9951
▁whiskers	-9952
▁Bourienne	-9953
▁afterward	-9954
▁cherished	-9955
▁obstinate	-9956
▁shillings	-9957
▁recollections	-9958
Mer	-9959
Mon	-9960
aya	-9961
grim	-9962
inth	-9963
sych	-9964
▁rav	-9965
These	-9966
▁hack	-9967
▁trot	-9968
igible	-9969
school	-9970
▁Price	-9971
▁Sofya	-9972
▁besee	-9973
▁gross	-9974
▁leads	-9975
▁repet	-9976
▁rings	-9977
anthrop	-9978
ighbury	-9979
▁Bessie	-9980
▁create	-9981
▁infirm	-9982
▁insuff	-9983
▁kisses	-9984
▁plaint	-9985
▁purity	-9986
▁terrif	-9987
▁wilder	-9988
Nonsense	-9989
▁Ferrars	-9990
▁October	-9991
▁drawers	-9992
▁hostile	-9993
▁pierced	-9994
▁Remember	-9995
▁Utterson	-9996
▁cautious	-9997
▁courtesy	-9998
▁fortunes	-9999
▁obstacle	-10000
▁Musketeer	-10001
▁fulfilled	-10002
▁perpetual	-10003
▁specially	-10004
▁staggered	-10005
▁stillness	-10006
▁additional	-10007
▁cautiously	-10008
▁astonishing	-10009
▁indispensable	-10010
dée	-10011
▁El	-10012
Lord	-10013
opch	-10014
▁bef	-10015
▁bri	-10016
ackum	-10017
itors	-10018
othes	-10019
▁Five	-10020
▁asks	-10021
▁chor	-10022
▁gild	-10023
▁lads	-10024
vation	-10025
▁Betsy	-10026
▁fiend	-10027
▁irony	-10028
▁locks	-10029
▁scrap	-10030
▁Lembke	-10031
▁avenue	-10032
▁frozen	-10033
▁lowest	-10034
▁offend	-10035
▁remedy	-10036
▁unkind	-10037
▁writes	-10038
▁despond	-10039
▁jumping	-10040
▁printed	-10041
▁refined	-10042
▁thereby	-10043
▁Nastenka	-10044
▁Thwackum	-10045
▁conclude	-10046
▁recently	-10047
▁shameful	-10048
▁whispers	-10049
▁lingering	-10050
▁stupidity	-10051
▁background	-10052
▁historical	-10053
▁precautions	-10054
▁confidential	-10055
Mé	-10056
—_	-10057
bod	-10058
nch	-10059
nton	-10060
odya	-10061
rade	-10062
recy	-10063
▁Gil	-10064
icide	-10065
phant	-10066
▁Magn	-10067
▁feed	-10068
▁tipt	-10069
advant	-10070
▁Sophy	-10071
▁chuck	-10072
▁exter	-10073
▁fiery	-10074
▁flank	-10075
▁squad	-10076
▁sweep	-10077
▁Samuel	-10078
▁fulfil	-10079
▁sketch	-10080
▁butcher	-10081
▁despite	-10082
▁judging	-10083
▁pleases	-10084
▁Rostopch	-10085
▁bursting	-10086
▁diamonds	-10087
▁dragging	-10088
▁speeches	-10089
▁committee	-10090
▁entreated	-10091
▁overheard	-10092
▁recovering	-10093
▁strengthen	-10094
▁enthusiastic	-10095
▁contemptuously	-10096
—‘	-10097
eel	-10098
wig	-10099
Thou	-10100
akle	-10101
llow	-10102
made	-10103
omon	-10104
pril	-10105
▁bru	-10106
▁pig	-10107
ander	-10108
itect	-10109
oving	-10110
▁Bour	-10111
▁Stap	-10112
▁bast	-10113
▁beef	-10114
▁clum	-10115
▁pupp	-10116
inbock	-10117
ptuous	-10118
riment	-10119
▁Edgar	-10120
▁abhor	-10121
▁calam	-10122
▁opera	-10123
▁Freddy	-10124
▁diplom	-10125
▁ensued	-10126
▁shower	-10127
quarters	-10128
tempered	-10129
▁Creakle	-10130
▁contact	-10131
▁European	-10132
▁Highbury	-10133
▁Sherlock	-10134
▁function	-10135
▁included	-10136
▁pretence	-10137
▁Comminges	-10138
▁Steinbock	-10139
▁affecting	-10140
▁arranging	-10141
▁whistling	-10142
▁affliction	-10143
▁department	-10144
▁complicated	-10145
▁illuminated	-10146
▁interruption	-10147
ées	-10148
ials	-10149
onne	-10150
▁Pul	-10151
▁Sur	-10152
▁nun	-10153
▁pas	-10154
▁rag	-10155
cence	-10156
ioned	-10157
lfare	-10158
rigny	-10159
▁Dean	-10160
▁pile	-10161
▁puts	-10162
athing	-10163
aubour	-10164
uation	-10165
▁boxes	-10166
▁shrew	-10167
▁smoot	-10168
mesdale	-10169
▁cattle	-10170
▁comedy	-10171
▁confid	-10172
▁mantel	-10173
▁welcom	-10174
▁British	-10175
▁college	-10176
▁contain	-10177
▁exhaust	-10178
▁hussars	-10179
▁welfare	-10180
▁Thornton	-10181
▁bachelor	-10182
▁coolness	-10183
▁insolent	-10184
▁quitting	-10185
▁revolver	-10186
▁selected	-10187
▁settling	-10188
▁curiously	-10189
▁noiseless	-10190
▁purposely	-10191
▁sparkling	-10192
▁Dimmesdale	-10193
▁gentleness	-10194
▁solicitude	-10195
▁humiliation	-10196
▁recommendation	-10197
?_	-10198
Tis	-10199
psy	-10200
rec	-10201
vin	-10202
yre	-10203
inev	-10204
mann	-10205
▁Put	-10206
▁hue	-10207
▁nap	-10208
Bless	-10209
elled	-10210
these	-10211
▁Crun	-10212
▁July	-10213
▁Nort	-10214
▁dwar	-10215
▁fuss	-10216
▁sale	-10217
▁text	-10218
ieties	-10219
▁Sower	-10220
▁alley	-10221
▁gifts	-10222
▁loyal	-10223
▁simpl	-10224
Avrigny	-10225
▁Betsey	-10226
▁despot	-10227
▁fisher	-10228
▁landsc	-10229
▁region	-10230
▁tricks	-10231
▁varied	-10232
▁bedside	-10233
▁briskly	-10234
▁fainted	-10235
▁galleys	-10236
▁gleamed	-10237
▁orchard	-10238
▁receipt	-10239
▁Oblonsky	-10240
▁critical	-10241
▁detained	-10242
▁flashing	-10243
▁industry	-10244
▁mistakes	-10245
▁moderate	-10246
▁obliging	-10247
▁relating	-10248
▁surround	-10249
▁disadvant	-10250
▁expensive	-10251
▁ingenious	-10252
▁sorrowful	-10253
▁continuing	-10254
▁contracted	-10255
▁intolerable	-10256
▁significant	-10257
▁troublesome	-10258
▁concentrated	-10259
▁mademoiselle	-10260
▁wretchedness	-10261
De	-10262
Sh	-10263
cut	-10264
fts	-10265
▁Ir	-10266
▁aug	-10267
▁sam	-10268
Méran	-10269
dotya	-10270
▁Rand	-10271
▁bits	-10272
▁exal	-10273
▁herd	-10274
▁hush	-10275
▁inch	-10276
▁knot	-10277
▁tang	-10278
askerv	-10279
cheria	-10280
giving	-10281
itudes	-10282
▁April	-10283
▁Giles	-10284
▁groom	-10285
▁sanct	-10286
▁ancest	-10287
▁jewels	-10288
▁traced	-10289
▁wiping	-10290
▁Fleming	-10291
▁betwixt	-10292
▁commiss	-10293
▁rubbish	-10294
▁clenched	-10295
▁combined	-10296
▁improper	-10297
▁strained	-10298
▁thirteen	-10299
▁Pulcheria	-10300
▁September	-10301
▁buildings	-10302
▁challenge	-10303
▁imaginary	-10304
▁Marseilles	-10305
▁objections	-10306
▁reflecting	-10307
▁conspicuous	-10308
▁congratulate	-10309
amb	-10310
inge	-10311
orte	-10312
ozha	-10313
sels	-10314
▁Nay	-10315
▁War	-10316
▁ash	-10317
After	-10318
isons	-10319
▁dirt	-10320
▁fame	-10321
▁nail	-10322
▁vind	-10323
▁jokes	-10324
▁livid	-10325
▁nasty	-10326
▁sworn	-10327
eryozha	-10328
ovember	-10329
▁falcon	-10330
▁growth	-10331
▁melted	-10332
▁pledge	-10333
▁specim	-10334
▁charmed	-10335
▁growled	-10336
▁praying	-10337
▁secrecy	-10338
▁trifles	-10339
▁Cruncher	-10340
▁earliest	-10341
▁esteemed	-10342
▁infamous	-10343
▁searched	-10344
▁telegram	-10345
▁consulted	-10346
▁ejaculated	-10347
▁disinterested	-10348
ai	-10349
▁Má	-10350
irit	-10351
olet	-10352
▁fug	-10353
▁glo	-10354
acing	-10355
▁arts	-10356
▁lame	-10357
▁sequ	-10358
▁succ	-10359
making	-10360
▁North	-10361
▁witch	-10362
isation	-10363
▁breach	-10364
▁courte	-10365
▁indist	-10366
▁sickly	-10367
humoured	-10368
▁Baskerv	-10369
▁blunder	-10370
▁buttons	-10371
▁complac	-10372
▁outline	-10373
▁rejoice	-10374
▁summons	-10375
▁brightly	-10376
▁detected	-10377
▁disappro	-10378
▁electric	-10379
▁elephant	-10380
▁equality	-10381
▁forwards	-10382
▁gigantic	-10383
▁majestic	-10384
▁architect	-10385
▁declaring	-10386
▁dependent	-10387
▁professor	-10388
▁prosperity	-10389
▁submission	-10390
▁refreshment	-10391
▁perspiration	-10392
ez	-10393
▁Fr	-10394
otto	-10395
▁Hor	-10396
▁sul	-10397
aying	-10398
might	-10399
▁joys	-10400
itched	-10401
should	-10402
stones	-10403
▁Cathy	-10404
▁Speak	-10405
▁rouse	-10406
▁tailor	-10407
▁languid	-10408
▁picking	-10409
▁vicious	-10410
▁Nastasya	-10411
▁November	-10412
▁alighted	-10413
▁clutched	-10414
▁defiance	-10415
▁floating	-10416
▁interrog	-10417
▁inwardly	-10418
▁reverend	-10419
▁stationed	-10420
▁inevitably	-10421
▁suppressed	-10422
▁illustrious	-10423
▁announcement	-10424
LL	-10425
▁Lo	-10426
▁Out	-10427
▁Sec	-10428
▁Ten	-10429
▁tar	-10430
anity	-10431
ieves	-10432
opsle	-10433
▁hats	-10434
▁await	-10435
▁flies	-10436
▁indec	-10437
▁ineff	-10438
▁lamps	-10439
▁scant	-10440
▁theme	-10441
▁thine	-10442
▁Wopsle	-10443
▁accuse	-10444
▁apples	-10445
▁chains	-10446
▁coquet	-10447
▁flowed	-10448
▁hasten	-10449
▁legend	-10450
▁orange	-10451
▁parcel	-10452
ountable	-10453
▁Avdotya	-10454
▁Josepha	-10455
▁antagon	-10456
▁folding	-10457
something	-10458
▁Cardinal	-10459
▁desolate	-10460
▁horribly	-10461
▁refusing	-10462
▁regained	-10463
▁ambitious	-10464
▁inhabited	-10465
▁penetrate	-10466
▁president	-10467
▁recalling	-10468
▁regularly	-10469
▁artificial	-10470
▁attraction	-10471
▁collection	-10472
▁sacrificed	-10473
▁exaggerated	-10474
▁incessantly	-10475
▁recognition	-10476
des	-10477
True	-10478
down	-10479
hind	-10480
vice	-10481
▁Cle	-10482
▁dru	-10483
▁Heep	-10484
▁bisc	-10485
▁dart	-10486
▁foam	-10487
▁stab	-10488
▁sund	-10489
▁swar	-10490
▁pious	-10491
▁wrist	-10492
▁Craven	-10493
▁Seeing	-10494
▁butler	-10495
▁glided	-10496
▁keenly	-10497
▁lodged	-10498
▁muslin	-10499
▁overfl	-10500
stricken	-10501
▁Between	-10502
▁praised	-10503
▁regards	-10504
▁trained	-10505
▁unlucky	-10506
▁approval	-10507
▁coldness	-10508
▁entitled	-10509
▁existing	-10510
▁welcomed	-10511
▁Professor	-10512
▁admission	-10513
▁incidents	-10514
▁muttering	-10515
▁patiently	-10516
▁meditation	-10517
▁appropriate	-10518
▁bourgeoisie	-10519
▁correspondence	-10520
▁Isn	-10521
▁Rod	-10522
▁wos	-10523
rivol	-10524
▁choo	-10525
▁glee	-10526
▁mend	-10527
assing	-10528
finger	-10529
ocious	-10530
▁Rodya	-10531
▁miser	-10532
▁robin	-10533
▁ships	-10534
▁troop	-10535
inkling	-10536
writing	-10537
▁Dodger	-10538
▁Regent	-10539
▁barely	-10540
▁beadle	-10541
▁bounds	-10542
▁brutal	-10543
▁canvas	-10544
▁frivol	-10545
▁indisc	-10546
▁landed	-10547
▁medium	-10548
▁tiptoe	-10549
▁uproar	-10550
▁warmed	-10551
▁Emerson	-10552
▁Solomon	-10553
▁baronet	-10554
▁beaming	-10555
▁execute	-10556
▁swallow	-10557
▁vividly	-10558
▁disposal	-10559
▁document	-10560
▁exciting	-10561
▁passport	-10562
▁pathetic	-10563
▁solution	-10564
ifications	-10565
▁Certainly	-10566
▁community	-10567
▁nervously	-10568
▁perplexed	-10569
▁prejudice	-10570
▁attempting	-10571
▁hysterical	-10572
▁embroidered	-10573
▁surrounding	-10574
ét	-10575
amn	-10576
▁Eh	-10577
Such	-10578
dlle	-10579
énsk	-10580
▁cel	-10581
▁tip	-10582
▁vap	-10583
ieved	-10584
▁Arch	-10585
▁Coun	-10586
▁Frid	-10587
▁Omer	-10588
▁chur	-10589
▁fors	-10590
▁moss	-10591
▁unto	-10592
encing	-10593
utable	-10594
▁Anton	-10595
▁bills	-10596
▁dares	-10597
▁entry	-10598
▁paced	-10599
▁Haydée	-10600
▁mouths	-10601
▁mutton	-10602
▁paraly	-10603
umerable	-10604
▁acquies	-10605
▁dungeon	-10606
▁emptied	-10607
▁grating	-10608
▁musical	-10609
▁novelty	-10610
▁tidings	-10611
▁Campbell	-10612
▁propriet	-10613
▁shutting	-10614
▁sufficed	-10615
▁sunlight	-10616
▁ferocious	-10617
▁fireplace	-10618
▁treasures	-10619
▁mentioning	-10620
▁speculation	-10621
bet	-10622
cts	-10623
ico	-10624
aman	-10625
born	-10626
open	-10627
ágin	-10628
▁Ade	-10629
▁Ing	-10630
▁Sar	-10631
▁oil	-10632
▁ted	-10633
▁tin	-10634
blanc	-10635
▁damn	-10636
▁gulf	-10637
▁mail	-10638
▁root	-10639
helieu	-10640
iverse	-10641
sworth	-10642
ursday	-10643
▁advoc	-10644
▁beach	-10645
▁grain	-10646
▁tires	-10647
ummidge	-10648
▁battal	-10649
▁diseng	-10650
▁instit	-10651
▁notary	-10652
▁pacing	-10653
▁states	-10654
▁tenant	-10655
▁toilet	-10656
▁Weather	-10657
▁bidding	-10658
▁circles	-10659
▁honesty	-10660
▁visions	-10661
▁creeping	-10662
▁farthing	-10663
▁lowering	-10664
▁quivered	-10665
▁Romanovna	-10666
▁absurdity	-10667
▁materials	-10668
▁offensive	-10669
▁persuasion	-10670
▁prejudices	-10671
▁individuals	-10672
▁obligations	-10673
rya	-10674
ubb	-10675
▁“’	-10676
amet	-10677
amin	-10678
arly	-10679
▁Luz	-10680
▁lum	-10681
▁tig	-10682
ciety	-10683
owner	-10684
quiet	-10685
raced	-10686
▁Scar	-10687
▁enig	-10688
▁inco	-10689
people	-10690
▁Flore	-10691
▁Thank	-10692
▁accum	-10693
▁topic	-10694
aternal	-10695
inarily	-10696
pending	-10697
renched	-10698
▁testim	-10699
▁forbear	-10700
▁frankly	-10701
▁mansion	-10702
▁priests	-10703
▁remonst	-10704
▁robbery	-10705
▁sighing	-10706
▁workman	-10707
▁Gummidge	-10708
▁decisive	-10709
▁elevated	-10710
▁greeting	-10711
▁sentinel	-10712
▁shrieked	-10713
▁subsided	-10714
▁tortured	-10715
▁umbrella	-10716
▁Therefore	-10717
▁enveloped	-10718
▁imagining	-10719
▁malicious	-10720
▁producing	-10721
▁protested	-10722
▁shivering	-10723
▁abominable	-10724
▁perception	-10725
▁stretching	-10726
▁commonplace	-10727
▁innumerable	-10728
▁involuntary	-10729
▁uncertainty	-10730
▁civilization	-10731
ato	-10732
avy	-10733
oof	-10734
▁Af	-10735
▁Bu	-10736
▁gy	-10737
wart	-10738
yers	-10739
▁Vol	-10740
Speak	-10741
ctors	-10742
endar	-10743
▁aver	-10744
▁nour	-10745
▁tint	-10746
antial	-10747
ousing	-10748
▁Betty	-10749
▁dusty	-10750
▁holes	-10751
▁redou	-10752
▁roots	-10753
▁seren	-10754
aubourg	-10755
▁Louvre	-10756
▁beasts	-10757
▁bullet	-10758
▁pearls	-10759
▁shrewd	-10760
▁subord	-10761
▁Gilbert	-10762
▁economy	-10763
▁groaned	-10764
▁signify	-10765
itability	-10766
▁Seryozha	-10767
▁clinging	-10768
▁daybreak	-10769
▁dejected	-10770
▁discreet	-10771
▁fearfully	-10772
▁conference	-10773
▁reappeared	-10774
▁confinement	-10775
▁perseverance	-10776
▁insignificant	-10777
equ	-10778
nay	-10779
rey	-10780
▁eg	-10781
aver	-10782
gest	-10783
isms	-10784
▁Get	-10785
▁Wed	-10786
▁wig	-10787
urbed	-10788
▁hood	-10789
▁latt	-10790
▁snug	-10791
inevra	-10792
▁Lidia	-10793
▁arter	-10794
▁boats	-10795
▁limit	-10796
▁manly	-10797
▁route	-10798
▁serfs	-10799
▁skull	-10800
▁stake	-10801
▁witty	-10802
▁Balash	-10803
▁Luzhin	-10804
▁disreg	-10805
▁divers	-10806
▁liable	-10807
▁meadow	-10808
▁sphere	-10809
▁Douvres	-10810
▁Virgins	-10811
▁exalted	-10812
▁terrors	-10813
onstantin	-10814
▁lighting	-10815
▁partners	-10816
▁rejoiced	-10817
▁repaired	-10818
▁sweetest	-10819
▁universe	-10820
▁allowance	-10821
▁expressly	-10822
▁freshness	-10823
▁screaming	-10824
▁alteration	-10825
▁retreating	-10826
▁Weatherstaff	-10827
▁dissatisfied	-10828
▁explanations	-10829
▁disappearance	-10830
Em	-10831
Say	-10832
mal	-10833
▁Pa	-10834
Hold	-10835
boat	-10836
eled	-10837
fold	-10838
oard	-10839
▁Day	-10840
▁Wor	-10841
▁woo	-10842
cible	-10843
otski	-10844
▁Hind	-10845
▁crum	-10846
▁rout	-10847
ovable	-10848
ulture	-10849
▁Faria	-10850
▁Ghost	-10851
▁Pelet	-10852
▁Simon	-10853
▁adore	-10854
▁blade	-10855
▁brick	-10856
▁dimly	-10857
▁owned	-10858
▁torch	-10859
▁trump	-10860
▁wreat	-10861
▁ascend	-10862
▁blamed	-10863
▁gendar	-10864
▁infall	-10865
▁martyr	-10866
▁oppose	-10867
▁overth	-10868
▁Leblanc	-10869
▁battery	-10870
▁colours	-10871
▁cruelly	-10872
▁descent	-10873
▁duchess	-10874
▁inspire	-10875
▁merrily	-10876
▁oppress	-10877
▁pausing	-10878
▁ribbons	-10879
▁Minister	-10880
▁Serjeant	-10881
▁alliance	-10882
▁chestnut	-10883
▁resource	-10884
▁squeezed	-10885
▁Richelieu	-10886
▁delirious	-10887
▁shattered	-10888
▁concealing	-10889
▁fascinated	-10890
▁repetition	-10891
▁resignation	-10892
▁interrupting	-10893
Two	-10894
bru	-10895
iac	-10896
asov	-10897
odin	-10898
!...”	-10899
istry	-10900
ograp	-10901
▁Bass	-10902
▁Stry	-10903
▁bail	-10904
▁bite	-10905
▁bone	-10906
▁bron	-10907
▁hook	-10908
▁rely	-10909
▁robe	-10910
▁sits	-10911
▁thri	-10912
▁verd	-10913
idance	-10914
lovsky	-10915
▁Jerry	-10916
▁Mason	-10917
▁Thorn	-10918
▁alien	-10919
▁basin	-10920
▁blunt	-10921
▁chast	-10922
▁coats	-10923
▁creep	-10924
▁crest	-10925
▁ditch	-10926
▁drama	-10927
▁suite	-10928
agnanim	-10929
whether	-10930
▁bloody	-10931
▁infect	-10932
▁nostri	-10933
▁parlor	-10934
▁urgent	-10935
▁achieve	-10936
▁imposed	-10937
▁massive	-10938
▁pensive	-10939
▁relinqu	-10940
▁subsequ	-10941
▁tearing	-10942
▁tightly	-10943
▁vessels	-10944
▁Thursday	-10945
▁Victorin	-10946
▁bleeding	-10947
▁fondness	-10948
▁magnanim	-10949
▁overcoat	-10950
▁politely	-10951
▁preceded	-10952
▁slippers	-10953
▁Virginsky	-10954
▁accepting	-10955
▁assistant	-10956
▁energetic	-10957
▁schoolboy	-10958
▁withdrawn	-10959
▁Nikolaevna	-10960
▁disturbance	-10961
▁sympathetic	-10962
▁transformed	-10963
▁comprehended	-10964
▁unreasonable	-10965
▁affectionately	-10966
uty	-10967
etto	-10968
lier	-10969
oine	-10970
onse	-10971
said	-10972
▁Off	-10973
▁les	-10974
▁pip	-10975
ifies	-10976
▁Over	-10977
▁Vill	-10978
▁beam	-10979
▁belt	-10980
▁bolt	-10981
▁flee	-10982
▁unsu	-10983
nesday	-10984
teenth	-10985
▁Chett	-10986
▁Mdlle	-10987
▁Márya	-10988
▁brush	-10989
▁faced	-10990
▁plays	-10991
▁slang	-10992
▁sunny	-10993
▁waked	-10994
itimate	-10995
▁detach	-10996
▁devote	-10997
▁homage	-10998
▁senior	-10999
▁soothe	-11000
▁Emanuel	-11001
▁Ilyitch	-11002
▁alluded	-11003
▁delayed	-11004
▁granite	-11005
▁methods	-11006
▁Republic	-11007
▁deserves	-11008
▁designed	-11009
▁felicity	-11010
▁honestly	-11011
▁inviting	-11012
▁Veslovsky	-11013
▁backwards	-11014
▁furiously	-11015
▁instances	-11016
▁professed	-11017
▁henceforth	-11018
▁provisions	-11019
▁wilderness	-11020
▁Baskerville	-11021
▁fortunately	-11022
▁superintend	-11023
▁inclinations	-11024
▁conversations	-11025
abb	-11026
ugn	-11027
win	-11028
▁"_	-11029
chal	-11030
iary	-11031
iron	-11032
umns	-11033
year	-11034
▁lav	-11035
count	-11036
odinó	-11037
ollen	-11038
▁Boul	-11039
▁Crim	-11040
▁airs	-11041
▁barn	-11042
▁duly	-11043
▁eggs	-11044
▁lots	-11045
▁ment	-11046
▁rein	-11047
▁tick	-11048
▁trip	-11049
rievna	-11050
▁alert	-11051
▁panic	-11052
▁remov	-11053
▁salon	-11054
▁Totski	-11055
▁gasped	-11056
▁genial	-11057
▁stormy	-11058
▁Stryver	-11059
▁acquire	-11060
▁clothed	-11061
▁console	-11062
▁cracked	-11063
▁essence	-11064
▁failing	-11065
▁furnish	-11066
▁pilgrim	-11067
▁soothed	-11068
▁springs	-11069
▁suicide	-11070
▁terrace	-11071
▁clearing	-11072
▁headlong	-11073
▁impulses	-11074
▁withered	-11075
▁yielding	-11076
▁expedient	-11077
▁Konstantin	-11078
▁entreaties	-11079
▁excessively	-11080
▁preoccupied	-11081
▁proposition	-11082
▁contemplated	-11083
▁contemptible	-11084
OR	-11085
bag	-11086
may	-11087
iard	-11088
mark	-11089
rons	-11090
▁Hot	-11091
▁Kal	-11092
▁cem	-11093
vered	-11094
▁Bapt	-11095
▁Hyde	-11096
▁Till	-11097
▁bash	-11098
dalion	-11099
ranean	-11100
▁ample	-11101
▁monot	-11102
entered	-11103
▁Friday	-11104
▁Spirit	-11105
▁curled	-11106
▁insinu	-11107
▁jailer	-11108
▁frantic	-11109
▁planned	-11110
▁scruple	-11111
▁stature	-11112
▁swollen	-11113
▁torrent	-11114
▁confided	-11115
▁eloquent	-11116
▁eternity	-11117
▁guidance	-11118
▁surveyed	-11119
▁swinging	-11120
▁Henrietta	-11121
▁Wednesday	-11122
▁signature	-11123
▁appreciate	-11124
▁consistent	-11125
▁conversing	-11126
▁describing	-11127
▁repentance	-11128
▁convenience	-11129
▁picturesque	-11130
▁contemptuous	-11131
ca	-11132
tr	-11133
euf	-11134
gle	-11135
whe	-11136
ersh	-11137
▁Mis	-11138
▁Pur	-11139
▁rug	-11140
stood	-11141
▁Berg	-11142
▁Bern	-11143
▁Gros	-11144
▁mast	-11145
alling	-11146
▁Bible	-11147
▁Combe	-11148
▁Const	-11149
▁Uncle	-11150
▁louis	-11151
▁meals	-11152
▁slack	-11153
erchief	-11154
▁Hollow	-11155
▁choked	-11156
▁errors	-11157
▁perish	-11158
▁requis	-11159
▁timber	-11160
ervation	-11161
▁confine	-11162
▁designs	-11163
▁endless	-11164
▁engross	-11165
▁fishing	-11166
▁floated	-11167
▁guineas	-11168
▁painter	-11169
▁passers	-11170
▁submiss	-11171
▁workmen	-11172
▁Borodinó	-11173
▁customary	-11174
▁spreading	-11175
▁treachery	-11176
▁university	-11177
▁benevolence	-11178
▁combination	-11179
▁composition	-11180
Ma	-11181
ui	-11182
isy	-11183
▁Ru	-11184
▁ah	-11185
▁au	-11186
gown	-11187
hile	-11188
omte	-11189
▁Mas	-11190
▁cad	-11191
culty	-11192
icate	-11193
ishly	-11194
pling	-11195
quite	-11196
▁caps	-11197
▁dint	-11198
▁lugg	-11199
▁unaw	-11200
Pardon	-11201
inding	-11202
▁beams	-11203
▁noisy	-11204
▁rusty	-11205
▁verse	-11206
▁vices	-11207
▁vigil	-11208
trievna	-11209
▁Dodson	-11210
▁Scotch	-11211
▁heroes	-11212
▁joking	-11213
▁preach	-11214
▁repugn	-11215
▁temple	-11216
▁upward	-11217
▁vainly	-11218
▁Heights	-11219
▁columns	-11220
▁faculty	-11221
▁gaining	-11222
▁natures	-11223
▁peeping	-11224
▁therein	-11225
▁thieves	-11226
▁weapons	-11227
▁birthday	-11228
▁comforts	-11229
▁fatigued	-11230
▁surprize	-11231
▁followers	-11232
▁obstacles	-11233
▁accordance	-11234
▁collecting	-11235
▁mechanical	-11236
▁personages	-11237
▁perceptible	-11238
▁temperament	-11239
▁commencement	-11240
▁apprehensions	-11241
▁Ap	-11242
▁Sav	-11243
▁cob	-11244
ariat	-11245
creat	-11246
force	-11247
geous	-11248
maker	-11249
▁Burd	-11250
▁Smol	-11251
▁aren	-11252
▁exem	-11253
▁sack	-11254
▁shoe	-11255
▁tray	-11256
▁unim	-11257
bruary	-11258
elcome	-11259
valier	-11260
▁Mills	-11261
▁domin	-11262
▁maids	-11263
▁metal	-11264
▁oppon	-11265
▁tooth	-11266
ocation	-11267
▁crowns	-11268
▁elabor	-11269
▁illust	-11270
▁keeper	-11271
▁prover	-11272
▁resume	-11273
▁Chettam	-11274
▁Ginevra	-11275
▁Towards	-11276
▁commend	-11277
▁culture	-11278
▁genteel	-11279
▁labours	-11280
▁proudly	-11281
▁Laurence	-11282
▁asserted	-11283
▁assigned	-11284
▁darkened	-11285
▁fainting	-11286
▁negative	-11287
▁tiresome	-11288
▁Middleton	-11289
▁reassured	-11290
▁wholesome	-11291
▁attributed	-11292
▁beautifully	-11293
▁desperately	-11294
▁philanthrop	-11295
▁aristocratic	-11296
bla	-11297
ems	-11298
éev	-11299
came	-11300
mont	-11301
oped	-11302
oral	-11303
pool	-11304
▁Cat	-11305
▁Jor	-11306
▁ost	-11307
eight	-11308
▁cove	-11309
▁hagg	-11310
▁reli	-11311
Surely	-11312
▁blown	-11313
▁costs	-11314
▁decre	-11315
▁defic	-11316
▁forge	-11317
▁reins	-11318
▁Strong	-11319
▁aboard	-11320
▁deceit	-11321
▁glowed	-11322
▁imagin	-11323
▁inches	-11324
▁namely	-11325
▁Society	-11326
▁conspir	-11327
▁dinners	-11328
▁hackney	-11329
▁handful	-11330
▁removal	-11331
▁spectre	-11332
▁Arabella	-11333
▁Ardalion	-11334
▁Mistress	-11335
▁disaster	-11336
▁drooping	-11337
▁recovery	-11338
▁sanction	-11339
▁agreement	-11340
▁connexion	-11341
▁deference	-11342
▁landscape	-11343
▁obstinacy	-11344
▁prominent	-11345
▁recognise	-11346
▁enterprise	-11347
▁population	-11348
▁conclusions	-11349
▁indignantly	-11350
▁undertaking	-11351
▁Parfenovitch	-11352
▁construction	-11353
▁disconcerted	-11354
▁neighbouring	-11355
Any	-11356
ena	-11357
iat	-11358
liv	-11359
ucy	-11360
▁ay	-11361
▁Jip	-11362
▁Tre	-11363
About	-11364
arers	-11365
bbers	-11366
bborn	-11367
bourg	-11368
illon	-11369
jamin	-11370
rempt	-11371
urous	-11372
▁Make	-11373
▁Wind	-11374
▁fare	-11375
▁gust	-11376
▁scor	-11377
▁seed	-11378
bishop	-11379
estine	-11380
ilence	-11381
ossima	-11382
▁advis	-11383
▁loath	-11384
▁pulse	-11385
▁shelf	-11386
▁trave	-11387
▁vicar	-11388
Exactly	-11389
▁Magdal	-11390
▁bridle	-11391
▁cotton	-11392
▁laughs	-11393
▁rattle	-11394
▁Protest	-11395
▁ability	-11396
▁compare	-11397
▁flowing	-11398
▁patriot	-11399
▁payment	-11400
▁perempt	-11401
▁tedious	-11402
▁Benjamin	-11403
▁Gardiner	-11404
▁Smolénsk	-11405
▁coloured	-11406
▁dazzling	-11407
▁effected	-11408
▁idleness	-11409
▁pursuits	-11410
▁response	-11411
▁serenity	-11412
▁spiteful	-11413
▁stubborn	-11414
▁adversary	-11415
▁boulevard	-11416
▁documents	-11417
▁sentences	-11418
▁voluntary	-11419
▁weariness	-11420
▁associated	-11421
▁forefinger	-11422
▁effectually	-11423
▁fascinating	-11424
▁instruction	-11425
▁superfluous	-11426
_—	-11427
aur	-11428
nor	-11429
▁Li	-11430
▁Pt	-11431
▁Vy	-11432
.--“	-11433
hard	-11434
ruly	-11435
▁Bab	-11436
▁hob	-11437
▁inm	-11438
▁jar	-11439
anter	-11440
being	-11441
cherb	-11442
icism	-11443
oughs	-11444
point	-11445
▁clad	-11446
▁cram	-11447
▁fork	-11448
▁infl	-11449
▁scan	-11450
▁vote	-11451
▁wars	-11452
▁Jenny	-11453
▁Karen	-11454
▁Varia	-11455
▁Vicar	-11456
▁china	-11457
▁defer	-11458
▁didst	-11459
▁jewel	-11460
▁prime	-11461
▁psych	-11462
▁sends	-11463
▁sting	-11464
▁tramp	-11465
▁aggrav	-11466
▁discom	-11467
▁doings	-11468
▁earned	-11469
▁explos	-11470
▁ghosts	-11471
▁labore	-11472
▁prelim	-11473
▁prophe	-11474
▁riches	-11475
▁tapest	-11476
▁Halbert	-11477
▁antique	-11478
▁briefly	-11479
▁captured	-11480
▁consists	-11481
▁mounting	-11482
▁observer	-11483
▁physiogn	-11484
▁radiance	-11485
▁converted	-11486
▁disclosed	-11487
▁exhibited	-11488
▁extending	-11489
▁policeman	-11490
▁premature	-11491
▁pronounce	-11492
▁worthless	-11493
▁commanding	-11494
▁convention	-11495
▁cultivated	-11496
▁schoolroom	-11497
▁destination	-11498
▁inquiringly	-11499
▁instruments	-11500
▁principally	-11501
▁presentiment	-11502
▁opportunities	-11503
és	-11504
Bah	-11505
ett	-11506
▁oy	-11507
None	-11508
oole	-11509
thou	-11510
▁tun	-11511
Still	-11512
garet	-11513
power	-11514
think	-11515
those	-11516
▁Dame	-11517
▁Lane	-11518
▁blot	-11519
▁bred	-11520
▁bush	-11521
▁leap	-11522
▁scow	-11523
▁shew	-11524
▁surv	-11525
▁curly	-11526
▁heaps	-11527
▁paths	-11528
▁sauce	-11529
▁shine	-11530
▁spoon	-11531
▁verge	-11532
colored	-11533
ouching	-11534
undered	-11535
▁Behind	-11536
▁argued	-11537
▁detain	-11538
▁grieve	-11539
▁shrank	-11540
ompierre	-11541
▁contest	-11542
▁cushion	-11543
▁dazzled	-11544
▁dispose	-11545
▁fetched	-11546
▁fitting	-11547
▁orderly	-11548
▁phantom	-11549
▁February	-11550
▁administ	-11551
▁beauties	-11552
▁nobleman	-11553
▁preacher	-11554
▁reconcil	-11555
▁scruples	-11556
▁shocking	-11557
▁dispersed	-11558
▁partition	-11559
▁possesses	-11560
▁provision	-11561
handkerchief	-11562
▁inheritance	-11563
▁accidentally	-11564
Yet	-11565
aks	-11566
bes	-11567
▁Kr	-11568
isse	-11569
litz	-11570
lorn	-11571
riel	-11572
skin	-11573
▁Van	-11574
▁ami	-11575
▁hem	-11576
▁jug	-11577
▁pul	-11578
ensed	-11579
groom	-11580
ousin	-11581
rical	-11582
urrah	-11583
uzzle	-11584
▁Pope	-11585
▁gods	-11586
▁grop	-11587
▁mate	-11588
▁quad	-11589
▁turf	-11590
azinov	-11591
isters	-11592
ocracy	-11593
▁Hotel	-11594
▁Irish	-11595
▁admon	-11596
▁chase	-11597
▁ghast	-11598
▁posts	-11599
▁tools	-11600
eration	-11601
istered	-11602
▁carved	-11603
▁econom	-11604
▁images	-11605
▁plates	-11606
▁sewing	-11607
▁adorned	-11608
▁bounded	-11609
▁caprice	-11610
▁implied	-11611
▁schools	-11612
▁tumbled	-11613
▁assuming	-11614
▁defended	-11615
▁poisoned	-11616
▁complained	-11617
▁parliament	-11618
▁presenting	-11619
▁succeeding	-11620
▁constructed	-11621
▁peculiarity	-11622
▁voluntarily	-11623
▁disadvantage	-11624
ooh	-11625
opes	-11626
wife	-11627
▁Hoh	-11628
▁ber	-11629
▁woe	-11630
orial	-11631
white	-11632
▁Near	-11633
▁anec	-11634
▁lazy	-11635
▁loaf	-11636
▁palm	-11637
▁prow	-11638
▁Henri	-11639
▁Polly	-11640
▁Ptits	-11641
▁Roger	-11642
▁backs	-11643
▁logic	-11644
▁loung	-11645
▁marsh	-11646
▁pluck	-11647
▁thigh	-11648
athemat	-11649
humored	-11650
possess	-11651
▁Malone	-11652
▁awhile	-11653
▁expand	-11654
▁extend	-11655
▁farmer	-11656
▁gravel	-11657
▁purely	-11658
▁shiver	-11659
▁sleepy	-11660
▁tapped	-11661
▁valued	-11662
▁carries	-11663
▁horrors	-11664
▁suffice	-11665
▁upwards	-11666
▁Woodcock	-11667
▁citizens	-11668
▁escaping	-11669
▁favoured	-11670
▁grasping	-11671
▁secondly	-11672
▁sideways	-11673
▁Burdovsky	-11674
▁exertions	-11675
▁inconsist	-11676
▁insolence	-11677
▁invention	-11678
▁Crimsworth	-11679
▁compromise	-11680
▁provincial	-11681
▁resembling	-11682
▁revelation	-11683
▁association	-11684
▁occupations	-11685
▁recognizing	-11686
▁supposition	-11687
▁exclamations	-11688
OL	-11689
bu	-11690
wa	-11691
ggy	-11692
conf	-11693
roit	-11694
▁Art	-11695
▁Jos	-11696
▁cam	-11697
▁gas	-11698
▁jun	-11699
▁lid	-11700
allow	-11701
ellow	-11702
henko	-11703
lakov	-11704
mercy	-11705
neath	-11706
▁Eyre	-11707
▁Last	-11708
▁bees	-11709
▁gobl	-11710
▁heel	-11711
▁phot	-11712
▁pite	-11713
▁pony	-11714
▁prog	-11715
▁recl	-11716
▁rese	-11717
▁sled	-11718
ecided	-11719
▁Spain	-11720
▁argue	-11721
▁assid	-11722
▁coron	-11723
▁dwarf	-11724
▁maxim	-11725
▁obliv	-11726
▁sails	-11727
▁wrung	-11728
However	-11729
isement	-11730
uration	-11731
usively	-11732
▁Maylie	-11733
▁expose	-11734
▁impass	-11735
▁league	-11736
▁midday	-11737
▁saints	-11738
▁tyrant	-11739
▁viewed	-11740
dishenko	-11741
▁apprent	-11742
▁assault	-11743
▁proving	-11744
▁snapped	-11745
▁winning	-11746
usterlitz	-11747
▁Hohlakov	-11748
▁Magdalen	-11749
▁fiercely	-11750
▁gloomily	-11751
▁premises	-11752
▁resisted	-11753
▁stealing	-11754
▁excepting	-11755
▁gallantry	-11756
▁greatness	-11757
▁springing	-11758
▁thrusting	-11759
▁undertook	-11760
▁brightness	-11761
▁deliberate	-11762
▁depression	-11763
▁incoherent	-11764
▁reluctance	-11765
▁undertaken	-11766
▁obstinately	-11767
▁Bassompierre	-11768
▁companionship	-11769
▁conscientious	-11770
Aye	-11771
byl	-11772
lea	-11773
Were	-11774
gard	-11775
ixed	-11776
osse	-11777
rois	-11778
▁Bez	-11779
▁Mab	-11780
▁nin	-11781
▁sho	-11782
Since	-11783
class	-11784
onstr	-11785
smith	-11786
unned	-11787
ursed	-11788
▁Dart	-11789
▁Karm	-11790
▁None	-11791
▁asyl	-11792
▁enra	-11793
▁repl	-11794
▁turb	-11795
nature	-11796
ribute	-11797
verent	-11798
▁cemet	-11799
▁climb	-11800
▁glare	-11801
▁shift	-11802
achable	-11803
forward	-11804
servant	-11805
without	-11806
▁Hunter	-11807
▁Palais	-11808
▁Signor	-11809
▁befall	-11810
▁cravat	-11811
▁symbol	-11812
bilities	-11813
▁Brother	-11814
▁Commons	-11815
▁affront	-11816
▁dangers	-11817
▁ghastly	-11818
▁princes	-11819
▁reigned	-11820
▁stained	-11821
▁achieved	-11822
▁candlest	-11823
▁contrive	-11824
▁flinging	-11825
▁pondered	-11826
▁punctual	-11827
▁transact	-11828
▁treating	-11829
▁whistled	-11830
▁Frenchmen	-11831
▁detective	-11832
▁Karmazinov	-11833
▁Wellington	-11834
▁charitable	-11835
▁despairing	-11836
▁monseigneur	-11837
▁selfishness	-11838
▁emphatically	-11839
▁impossibility	-11840
▁unaccountable	-11841
;’	-11842
Me	-11843
;--	-11844
era	-11845
hot	-11846
agan	-11847
kyll	-11848
▁dow	-11849
▁toy	-11850
Mamma	-11851
ifice	-11852
pture	-11853
rates	-11854
ships	-11855
▁Club	-11856
▁Much	-11857
▁Oliv	-11858
▁Tsar	-11859
▁bows	-11860
▁brew	-11861
▁cows	-11862
▁hare	-11863
▁mama	-11864
▁pump	-11865
▁Above	-11866
▁Crupp	-11867
▁Swiss	-11868
▁Women	-11869
▁cliff	-11870
▁explo	-11871
▁fling	-11872
▁games	-11873
▁hound	-11874
▁races	-11875
▁thumb	-11876
▁Minnie	-11877
▁Please	-11878
▁accost	-11879
▁anyhow	-11880
▁cocked	-11881
▁degrad	-11882
▁hussar	-11883
▁vanish	-11884
▁excused	-11885
▁flutter	-11886
▁reverse	-11887
▁schemes	-11888
▁stables	-11889
▁assembly	-11890
▁blooming	-11891
▁desiring	-11892
▁fidelity	-11893
▁menacing	-11894
▁morality	-11895
▁sickness	-11896
▁ornaments	-11897
▁testimony	-11898
▁Austerlitz	-11899
▁Thornfield	-11900
▁complaints	-11901
▁dependence	-11902
▁diminished	-11903
▁production	-11904
▁profoundly	-11905
▁repeatedly	-11906
▁engagements	-11907
▁familiarity	-11908
▁humiliating	-11909
▁impertinent	-11910
▁penetrating	-11911
▁philosophers	-11912
▁reconciliation	-11913
;"	-11914
Br	-11915
Com	-11916
oil	-11917
sis	-11918
uet	-11919
poor	-11920
▁Bus	-11921
▁Ner	-11922
▁Win	-11923
▁bud	-11924
▁eag	-11925
Leave	-11926
cipit	-11927
green	-11928
grown	-11929
horse	-11930
inals	-11931
ppino	-11932
▁Mann	-11933
▁Wait	-11934
▁file	-11935
▁flav	-11936
▁lamb	-11937
▁limb	-11938
▁unav	-11939
antime	-11940
spread	-11941
▁Dutch	-11942
▁Poole	-11943
▁blaze	-11944
▁craft	-11945
▁disin	-11946
▁evils	-11947
▁glist	-11948
▁griev	-11949
▁opens	-11950
▁repay	-11951
▁rises	-11952
umbered	-11953
▁Matvey	-11954
▁Morton	-11955
▁Rachel	-11956
▁amends	-11957
▁doomed	-11958
▁heated	-11959
▁prostr	-11960
▁revolt	-11961
▁shriek	-11962
▁skirts	-11963
▁defined	-11964
▁lighter	-11965
▁returns	-11966
▁Mellersh	-11967
▁bewilder	-11968
▁breeches	-11969
▁brighter	-11970
▁calamity	-11971
▁cavalier	-11972
▁softness	-11973
▁spinster	-11974
▁betraying	-11975
▁distorted	-11976
▁protected	-11977
▁redoubled	-11978
▁steadfast	-11979
▁Parliament	-11980
▁possessing	-11981
▁degradation	-11982
▁exasperated	-11983
▁institution	-11984
▁institutions	-11985
▁comparatively	-11986
IC	-11987
fit	-11988
nis	-11989
urt	-11990
prit	-11991
tski	-11992
▁Inn	-11993
▁ath	-11994
▁cud	-11995
cases	-11996
chiev	-11997
icker	-11998
iless	-11999
quire	-12000
▁Avon	-12001
▁clay	-12002
▁eman	-12003
▁lump	-12004
chance	-12005
humour	-12006
▁Drumm	-12007
▁Molly	-12008
▁Stone	-12009
▁Upper	-12010
▁aspir	-12011
▁roofs	-12012
outhern	-12013
▁Gretel	-12014
▁Lavish	-12015
▁afresh	-12016
▁biting	-12017
▁latest	-12018
▁livres	-12019
▁neatly	-12020
▁truths	-12021
▁unanim	-12022
▁Finally	-12023
▁Ptitsin	-12024
▁forlorn	-12025
▁pitiful	-12026
▁saluted	-12027
▁swelled	-12028
▁tongues	-12029
▁nostrils	-12030
▁unfolded	-12031
▁wrinkled	-12032
Impossible	-12033
▁demeanour	-12034
▁establish	-12035
▁housemaid	-12036
▁reconcile	-12037
▁stupefied	-12038
▁brightened	-12039
▁influenced	-12040
▁affectation	-12041
▁appreciated	-12042
▁disgraceful	-12043
▁reluctantly	-12044
▁sensibility	-12045
▁comprehension	-12046
▁mortification	-12047
.—“	-12048
Nor	-12049
nic	-12050
arts	-12051
bble	-12052
enet	-12053
hors	-12054
odka	-12055
▁dug	-12056
▁pau	-12057
▁yer	-12058
Uncle	-12059
coach	-12060
hoven	-12061
olent	-12062
▁Kate	-12063
▁brim	-12064
▁cope	-12065
▁dand	-12066
▁duck	-12067
▁holl	-12068
▁intr	-12069
▁lass	-12070
▁musk	-12071
▁summ	-12072
▁ties	-12073
▁unce	-12074
▁unin	-12075
▁wilt	-12076
▁Magic	-12077
▁Mayor	-12078
▁faire	-12079
▁metap	-12080
▁sangu	-12081
▁spots	-12082
▁sweat	-12083
▁wagon	-12084
▁wider	-12085
arnasse	-12086
ortions	-12087
ospital	-12088
▁Empire	-12089
▁Rodion	-12090
▁armies	-12091
▁chorus	-12092
▁mostly	-12093
▁wicket	-12094
▁Avonlea	-12095
▁Germany	-12096
▁Peppino	-12097
▁annihil	-12098
▁beseech	-12099
▁highway	-12100
▁kindled	-12101
▁passive	-12102
▁proverb	-12103
▁rattled	-12104
▁strikes	-12105
abilities	-12106
▁Margaret	-12107
▁avoiding	-12108
▁interven	-12109
▁mischiev	-12110
▁precipit	-12111
▁removing	-12112
▁squadron	-12113
▁including	-12114
▁intensely	-12115
▁memorable	-12116
▁procureur	-12117
▁tradition	-12118
▁accusation	-12119
▁bridegroom	-12120
▁despatched	-12121
▁supporting	-12122
Mademoiselle	-12123
▁concealment	-12124
▁transferred	-12125
lor	-12126
alia	-12127
lesi	-12128
love	-12129
smen	-12130
▁Dem	-12131
▁hug	-12132
----"	-12133
burst	-12134
knife	-12135
rable	-12136
shall	-12137
▁Benn	-12138
▁Cors	-12139
▁Nina	-12140
▁fath	-12141
▁quay	-12142
▁void	-12143
idious	-12144
pulous	-12145
ricate	-12146
soever	-12147
▁Satan	-12148
▁antip	-12149
▁brace	-12150
▁cream	-12151
▁defin	-12152
▁pinch	-12153
▁spont	-12154
▁Barton	-12155
▁bother	-12156
▁chival	-12157
▁dagger	-12158
▁dearer	-12159
▁implic	-12160
▁ingrat	-12161
▁policy	-12162
▁precip	-12163
▁shroud	-12164
▁slaves	-12165
▁trials	-12166
hovensky	-12167
question	-12168
▁Britain	-12169
▁Charley	-12170
▁Tellson	-12171
▁augment	-12172
▁boiling	-12173
▁customs	-12174
▁emperor	-12175
▁hateful	-12176
▁journal	-12177
▁lawyers	-12178
unciation	-12179
▁Hallward	-12180
▁Mortimer	-12181
▁breeding	-12182
▁crushing	-12183
▁delights	-12184
▁harmless	-12185
▁illusion	-12186
▁inexperi	-12187
▁pictured	-12188
▁timidity	-12189
▁Stapleton	-12190
▁enchanted	-12191
▁literally	-12192
▁matrimony	-12193
▁salvation	-12194
▁unusually	-12195
▁indefinite	-12196
▁uncommonly	-12197
▁Ferdishenko	-12198
▁affirmative	-12199
▁discovering	-12200
▁understands	-12201
Car	-12202
dog	-12203
eva	-12204
pot	-12205
voc	-12206
▁ow	-12207
ampa	-12208
half	-12209
mire	-12210
pton	-12211
rise	-12212
udic	-12213
▁Ang	-12214
▁Sht	-12215
▁cyn	-12216
▁pav	-12217
▁rot	-12218
Count	-12219
atted	-12220
beria	-12221
kered	-12222
thren	-12223
▁Lind	-12224
▁aust	-12225
▁drum	-12226
▁grud	-12227
▁surp	-12228
ametov	-12229
vatore	-12230
▁Annie	-12231
▁Glend	-12232
▁Nelly	-12233
▁aimed	-12234
▁amiss	-12235
▁array	-12236
▁equip	-12237
▁vodka	-12238
▁weren	-12239
Besides	-12240
urances	-12241
▁Easter	-12242
▁Gables	-12243
▁Ingram	-12244
▁Jekyll	-12245
▁Really	-12246
▁Twenty	-12247
▁copper	-12248
▁entang	-12249
▁insane	-12250
▁shades	-12251
▁virgin	-12252
▁visage	-12253
▁austere	-12254
▁blossom	-12255
▁brushed	-12256
▁carpent	-12257
▁fixedly	-12258
▁muscles	-12259
▁roughly	-12260
▁turnkey	-12261
▁Hospital	-12262
▁Randalls	-12263
▁clothing	-12264
▁impudent	-12265
▁mattress	-12266
▁provoked	-12267
▁sparkled	-12268
▁stumbled	-12269
▁sufferer	-12270
▁Pontmercy	-12271
▁Salvatore	-12272
▁clearness	-12273
▁diligence	-12274
▁fluttered	-12275
▁frivolous	-12276
▁promotion	-12277
▁resounded	-12278
▁acceptance	-12279
▁meditating	-12280
▁shuddering	-12281
▁conjectures	-12282
▁relationship	-12283
IV	-12284
Jane	-12285
cond	-12286
gage	-12287
icer	-12288
ords	-12289
pole	-12290
uced	-12291
▁pew	-12292
▁rub	-12293
?”--“	-12294
ected	-12295
ients	-12296
▁Home	-12297
▁Toll	-12298
▁Vall	-12299
▁claw	-12300
▁foli	-12301
▁link	-12302
▁peop	-12303
▁vibr	-12304
almost	-12305
culine	-12306
▁Bened	-12307
▁Cross	-12308
▁deuce	-12309
▁ivory	-12310
parable	-12311
powered	-12312
ricious	-12313
thought	-12314
▁adjust	-12315
▁asylum	-12316
▁gilded	-12317
▁morbid	-12318
▁morsel	-12319
▁nicely	-12320
▁pallor	-12321
▁plunge	-12322
▁unchan	-12323
▁unfair	-12324
▁wreath	-12325
▁Siberia	-12326
▁attacks	-12327
▁censure	-12328
▁clearer	-12329
▁divined	-12330
▁estates	-12331
▁eyelids	-12332
▁haggard	-12333
▁joining	-12334
▁rectory	-12335
▁Reverend	-12336
▁applause	-12337
▁believes	-12338
▁enclosed	-12339
▁engaging	-12340
▁entreaty	-12341
▁foremost	-12342
▁identity	-12343
▁overtake	-12344
▁produces	-12345
▁remonstr	-12346
▁striving	-12347
▁approving	-12348
▁doctrines	-12349
▁obtaining	-12350
▁protector	-12351
▁repulsive	-12352
▁tremulous	-12353
▁ingratitude	-12354
▁imprisonment	-12355
fol	-12356
ola	-12357
▁wi	-12358
▁‘_	-12359
girl	-12360
hill	-12361
oise	-12362
oust	-12363
▁Orl	-12364
▁Sit	-12365
▁dio	-12366
▁hei	-12367
arned	-12368
bourn	-12369
eyond	-12370
ferre	-12371
notes	-12372
still	-12373
▁Past	-12374
▁Read	-12375
▁mien	-12376
▁pane	-12377
▁peer	-12378
▁tips	-12379
▁urge	-12380
▁vine	-12381
▁wist	-12382
estial	-12383
iantly	-12384
inning	-12385
▁Brous	-12386
▁David	-12387
▁Montp	-12388
▁Sibyl	-12389
▁Timof	-12390
▁Vampa	-12391
▁brink	-12392
▁clust	-12393
▁cured	-12394
▁engra	-12395
▁exile	-12396
▁latch	-12397
▁oaths	-12398
▁pearl	-12399
▁rogue	-12400
▁scarf	-12401
▁stray	-12402
▁suits	-12403
▁usher	-12404
ossibly	-12405
stained	-12406
▁Mabeuf	-12407
▁Polish	-12408
▁Waters	-12409
▁abused	-12410
▁bronze	-12411
▁consec	-12412
aggering	-12413
▁Drummle	-12414
▁Looking	-12415
▁chicken	-12416
▁clapped	-12417
▁dealing	-12418
▁defense	-12419
▁harvest	-12420
▁pleaded	-12421
▁sailing	-12422
▁thirsty	-12423
▁touches	-12424
▁traitor	-12425
▁whoever	-12426
▁Cossacks	-12427
▁beckoned	-12428
▁brethren	-12429
▁cemetery	-12430
▁churches	-12431
▁confront	-12432
▁deceased	-12433
▁heavenly	-12434
▁imparted	-12435
▁ironical	-12436
▁nineteen	-12437
▁reckless	-12438
ortunately	-12439
▁Fieldhead	-12440
▁Longbourn	-12441
▁blackened	-12442
▁cordially	-12443
▁criticism	-12444
▁directing	-12445
▁masculine	-12446
▁partially	-12447
▁provinces	-12448
▁surprized	-12449
▁tradesman	-12450
▁undergone	-12451
atisfaction	-12452
▁Combeferre	-12453
▁assurances	-12454
▁attendants	-12455
▁exclaiming	-12456
▁photograph	-12457
▁Verhovensky	-12458
▁differences	-12459
▁handwriting	-12460
▁Montparnasse	-12461
▁advantageous	-12462
▁anticipation	-12463
▁triumphantly	-12464
,)	-12465
uk	-12466
wy	-12467
bal	-12468
hog	-12469
tre	-12470
comm	-12471
cony	-12472
eles	-12473
hawe	-12474
ocks	-12475
oons	-12476
resa	-12477
uter	-12478
▁Gos	-12479
▁Kuz	-12480
▁Rom	-12481
▁Ull	-12482
▁ada	-12483
▁cyl	-12484
▁hal	-12485
▁map	-12486
blest	-12487
ieces	-12488
▁Fans	-12489
▁croo	-12490
▁flan	-12491
▁fowl	-12492
▁kick	-12493
▁piqu	-12494
▁scul	-12495
▁sung	-12496
▁tack	-12497
▁volu	-12498
ainted	-12499
▁Sarah	-12500
▁cryst	-12501
▁glove	-12502
▁intru	-12503
▁vehem	-12504
iration	-12505
keeping	-12506
ossimov	-12507
umstead	-12508
▁Prussi	-12509
▁Within	-12510
▁damned	-12511
▁dioces	-12512
▁graces	-12513
▁lashes	-12514
▁prolet	-12515
▁raving	-12516
▁recomp	-12517
▁towers	-12518
▁Strange	-12519
▁adapted	-12520
▁balcony	-12521
▁chatter	-12522
▁claimed	-12523
▁compens	-12524
▁coughed	-12525
▁deprive	-12526
▁endowed	-12527
▁hopeful	-12528
▁largest	-12529
▁luggage	-12530
▁robbers	-12531
▁stifled	-12532
▁winking	-12533
▁conquest	-12534
▁objected	-12535
▁slipping	-12536
▁Plumstead	-12537
▁glittered	-12538
▁sarcastic	-12539
▁vehemence	-12540
▁wickedness	-12541
▁presumption	-12542
Had	-12543
obs	-12544
ula	-12545
▁Up	-12546
VIII	-12547
esay	-12548
ften	-12549
lder	-12550
oism	-12551
went	-12552
▁Bog	-12553
▁Ter	-12554
▁ivy	-12555
atern	-12556
ernal	-12557
inges	-12558
seven	-12559
▁Also	-12560
▁athe	-12561
▁avar	-12562
▁dash	-12563
▁doom	-12564
▁dost	-12565
▁gilt	-12566
▁gird	-12567
▁pomp	-12568
▁seas	-12569
▁tops	-12570
iquity	-12571
urally	-12572
▁apert	-12573
▁globe	-12574
▁smugg	-12575
▁theft	-12576
athorne	-12577
ography	-12578
overing	-12579
▁ardour	-12580
▁harmon	-12581
▁homely	-12582
▁simult	-12583
▁sleigh	-12584
▁stores	-12585
▁wisely	-12586
ceptions	-12587
cherbats	-12588
▁Baptist	-12589
▁Believe	-12590
▁Jacques	-12591
▁accents	-12592
▁heroine	-12593
▁inflict	-12594
▁meadows	-12595
▁omitted	-12596
▁selling	-12597
▁Fanshawe	-12598
▁Faubourg	-12599
▁Meantime	-12600
▁flushing	-12601
▁grandson	-12602
▁maternal	-12603
▁resemble	-12604
▁retiring	-12605
▁scholars	-12606
▁shilling	-12607
▁worrying	-12608
▁admirably	-12609
▁afflicted	-12610
▁exercised	-12611
▁meditated	-12612
▁referring	-12613
▁Sowerberry	-12614
▁Ullathorne	-12615
▁originally	-12616
▁reproached	-12617
▁vigorously	-12618
▁Romanovitch	-12619
▁exceptional	-12620
▁intoxicated	-12621
▁mischievous	-12622
▁bewilderment	-12623
▁characterist	-12624
▁consultation	-12625
▁dispositions	-12626
▁successfully	-12627
▁contradiction	-12628
!)	-12629
oa	-12630
Con	-12631
lym	-12632
▁Ac	-12633
▁OF	-12634
rers	-12635
unte	-12636
wich	-12637
▁Bha	-12638
▁Del	-12639
▁Hug	-12640
▁Whe	-12641
▁dex	-12642
▁gna	-12643
▁rap	-12644
▁vow	-12645
arian	-12646
cribe	-12647
found	-12648
pinay	-12649
▁Cuth	-12650
▁Hard	-12651
▁Pell	-12652
▁lect	-12653
▁pest	-12654
▁slim	-12655
anting	-12656
ermain	-12657
hement	-12658
iggins	-12659
ittles	-12660
rament	-12661
rectly	-12662
vreuse	-12663
▁Briar	-12664
▁Lizzy	-12665
▁blast	-12666
▁corps	-12667
▁crash	-12668
▁paler	-12669
▁Hector	-12670
▁ashore	-12671
▁bathed	-12672
▁sledge	-12673
▁sundry	-12674
arnished	-12675
▁amazing	-12676
▁arising	-12677
▁dashing	-12678
▁follies	-12679
▁foresaw	-12680
▁lattice	-12681
▁leaders	-12682
▁muskets	-12683
▁plucked	-12684
▁pudding	-12685
▁regions	-12686
▁scholar	-12687
▁shallow	-12688
▁skilful	-12689
▁tyranny	-12690
▁Bastille	-12691
▁Cuthbert	-12692
▁Florence	-12693
▁Lindesay	-12694
▁abstract	-12695
▁affirmed	-12696
▁delusion	-12697
▁fireside	-12698
▁lifeless	-12699
▁mentally	-12700
▁necklace	-12701
▁vivacity	-12702
▁admitting	-12703
▁relatives	-12704
▁surrender	-12705
▁transform	-12706
▁cordiality	-12707
▁ornamented	-12708
▁phenomenon	-12709
▁regardless	-12710
▁situations	-12711
▁Shtcherbats	-12712
▁coincidence	-12713
▁physiognomy	-12714
▁insurrection	-12715
AT	-12716
La	-12717
Pe	-12718
hib	-12719
vis	-12720
emon	-12721
gypt	-12722
much	-12723
ovya	-12724
▁Bru	-12725
▁Sym	-12726
▁egg	-12727
▁eve	-12728
▁hoo	-12729
▁wan	-12730
Could	-12731
atoes	-12732
human	-12733
laida	-12734
▁Dece	-12735
▁Down	-12736
▁buzz	-12737
▁cate	-12738
▁coax	-12739
▁cong	-12740
▁dorm	-12741
▁loft	-12742
▁loos	-12743
▁nook	-12744
▁pens	-12745
▁perv	-12746
▁spar	-12747
Thanks	-12748
arette	-12749
ivable	-12750
mering	-12751
olence	-12752
ridges	-12753
▁Guard	-12754
▁Stand	-12755
▁attic	-12756
▁aught	-12757
▁dealt	-12758
▁decay	-12759
▁depra	-12760
▁giddy	-12761
▁mirac	-12762
▁restr	-12763
▁sheer	-12764
▁spade	-12765
cension	-12766
clothes	-12767
ulously	-12768
▁Dartle	-12769
▁Keller	-12770
▁courts	-12771
▁dexter	-12772
▁dragon	-12773
▁livery	-12774
▁nobles	-12775
▁subter	-12776
▁vigour	-12777
▁Barrois	-12778
▁Trotter	-12779
▁compact	-12780
▁crowned	-12781
▁extract	-12782
▁thicket	-12783
▁Adelaida	-12784
▁Austrian	-12785
▁Emmanuel	-12786
▁Governor	-12787
▁appealed	-12788
▁blossoms	-12789
▁consumed	-12790
▁mathemat	-12791
▁outburst	-12792
▁paternal	-12793
▁prompted	-12794
▁vehement	-12795
Everything	-12796
▁Chevreuse	-12797
▁Gentlemen	-12798
▁abilities	-12799
▁cigarette	-12800
▁extensive	-12801
▁insulting	-12802
▁loathsome	-12803
▁merriment	-12804
▁permanent	-12805
▁rendering	-12806
▁resembles	-12807
▁seclusion	-12808
▁strangest	-12809
▁Government	-12810
▁acceptable	-12811
▁dismounted	-12812
▁disrespect	-12813
▁indistinct	-12814
▁mournfully	-12815
▁associations	-12816
▁surroundings	-12817
▁contemplating	-12818
Bet	-12819
ada	-12820
iva	-12821
▁Ty	-12822
cade	-12823
hara	-12824
ondy	-12825
▁Fre	-12826
▁fid	-12827
▁tas	-12828
agers	-12829
chins	-12830
comer	-12831
erity	-12832
illot	-12833
inted	-12834
mante	-12835
▁Lark	-12836
▁avow	-12837
▁depl	-12838
▁lull	-12839
▁nort	-12840
amshin	-12841
aunted	-12842
except	-12843
handed	-12844
icular	-12845
▁Egypt	-12846
▁Mihal	-12847
▁anter	-12848
▁gloss	-12849
▁minor	-12850
▁nerve	-12851
▁paras	-12852
▁penal	-12853
▁raven	-12854
▁sepul	-12855
▁sniff	-12856
▁stain	-12857
othered	-12858
▁Almost	-12859
▁clumsy	-12860
▁excurs	-12861
▁liquor	-12862
▁neglig	-12863
▁repast	-12864
▁rivers	-12865
▁unseem	-12866
▁applaud	-12867
▁authors	-12868
▁foliage	-12869
▁playful	-12870
▁redoubt	-12871
▁sustain	-12872
▁sweetly	-12873
▁volunte	-12874
▁detached	-12875
▁isolated	-12876
▁meetings	-12877
▁nightcap	-12878
▁overhead	-12879
▁renounce	-12880
▁splendor	-12881
▁disguised	-12882
▁frankness	-12883
▁immovable	-12884
▁imprudent	-12885
▁malignant	-12886
▁precision	-12887
▁sheltered	-12888
▁streaming	-12889
▁capricious	-12890
▁consulting	-12891
▁graciously	-12892
▁legitimate	-12893
▁operations	-12894
▁reasonably	-12895
▁Antonovitch	-12896
▁introducing	-12897
▁transparent	-12898
▁intelligible	-12899
▁accommodation	-12900
▁investigation	-12901
ér	-12902
Cap	-12903
aci	-12904
▁Ig	-12905
camp	-12906
chev	-12907
khon	-12908
▁Cla	-12909
▁Roy	-12910
▁Six	-12911
▁foe	-12912
▁loc	-12913
assad	-12914
kespe	-12915
laces	-12916
orter	-12917
rants	-12918
▁Braz	-12919
▁dove	-12920
▁goal	-12921
▁lung	-12922
▁rabb	-12923
▁sums	-12924
▁vary	-12925
Prince	-12926
ardieu	-12927
onnect	-12928
▁Abbey	-12929
▁Bhaer	-12930
▁cripp	-12931
▁muddy	-12932
▁patch	-12933
▁piled	-12934
▁popul	-12935
▁recur	-12936
▁rider	-12937
▁ruddy	-12938
▁unite	-12939
▁wears	-12940
settled	-12941
sighted	-12942
▁Social	-12943
▁calmer	-12944
▁hushed	-12945
▁integr	-12946
▁rustle	-12947
▁salute	-12948
▁stress	-12949
atically	-12950
▁Fortune	-12951
▁Martian	-12952
▁handing	-12953
▁lacking	-12954
▁pledged	-12955
▁wonders	-12956
▁Broussel	-12957
▁disquiet	-12958
▁feathers	-12959
▁overtook	-12960
▁sounding	-12961
▁southern	-12962
▁vocation	-12963
▁apologize	-12964
▁associate	-12965
▁intimated	-12966
▁portraits	-12967
▁qualified	-12968
▁rejoicing	-12969
▁startling	-12970
▁surveying	-12971
▁impressive	-12972
▁improbable	-12973
▁overlooked	-12974
▁antechamber	-12975
▁complaining	-12976
▁constituted	-12977
▁convictions	-12978
▁inspiration	-12979
▁personality	-12980
▁accompanying	-12981
▁entertaining	-12982
AS	-12983
Put	-12984
cor	-12985
eau	-12986
▁az	-12987
Make	-12988
More	-12989
bted	-12990
cely	-12991
iege	-12992
mere	-12993
worn	-12994
▁Bil	-12995
▁Ned	-12996
▁omn	-12997
▁raw	-12998
Madam	-12999
books	-13000
cibly	-13001
dress	-13002
loire	-13003
ocity	-13004
retty	-13005
ushka	-13006
▁Dieu	-13007
▁Spit	-13008
▁bury	-13009
▁rehe	-13010
▁sque	-13011
▁usur	-13012
▁vith	-13013
ildren	-13014
ponine	-13015
smouth	-13016
things	-13017
▁Georg	-13018
▁Perry	-13019
▁bunch	-13020
▁enlar	-13021
▁fists	-13022
▁plead	-13023
▁shots	-13024
▁unfit	-13025
figured	-13026
lexible	-13027
▁bolted	-13028
▁busily	-13029
▁fruits	-13030
▁hazard	-13031
▁relent	-13032
▁smoked	-13033
▁termed	-13034
▁Forgive	-13035
▁Groslow	-13036
▁agonies	-13037
▁breadth	-13038
▁cheered	-13039
▁excuses	-13040
▁gasping	-13041
▁harbour	-13042
▁monoton	-13043
▁posture	-13044
▁sarcasm	-13045
▁visibly	-13046
oneliness	-13047
▁December	-13048
▁Magloire	-13049
▁abundant	-13050
▁accursed	-13051
▁advances	-13052
▁fragment	-13053
▁imposing	-13054
▁indebted	-13055
▁marching	-13056
▁obedient	-13057
▁projects	-13058
▁recorded	-13059
▁republic	-13060
▁sticking	-13061
▁swelling	-13062
▁abundance	-13063
▁blessings	-13064
▁conferred	-13065
▁imitation	-13066
▁ministers	-13067
▁practised	-13068
▁refreshed	-13069
▁signified	-13070
▁Portsmouth	-13071
▁Protestant	-13072
▁controlled	-13073
▁excellence	-13074
▁instructed	-13075
▁singularly	-13076
▁Glendinning	-13077
▁ascertained	-13078
▁manufacture	-13079
▁overpowered	-13080
▁unhappiness	-13081
▁recollecting	-13082
▁remonstrance	-13083
▁compassionate	-13084
kel	-13085
oxy	-13086
say	-13087
too	-13088
eous	-13089
isht	-13090
name	-13091
once	-13092
tery	-13093
uled	-13094
▁Ass	-13095
▁Mel	-13096
▁bee	-13097
iards	-13098
ánski	-13099
▁cups	-13100
▁emig	-13101
▁gram	-13102
▁hail	-13103
▁worm	-13104
Heaven	-13105
▁apost	-13106
▁energ	-13107
▁lands	-13108
▁lapse	-13109
▁pilot	-13110
▁split	-13111
▁thorn	-13112
itative	-13113
morning	-13114
▁Magnus	-13115
▁Palmer	-13116
▁filthy	-13117
▁lustre	-13118
▁Paulina	-13119
▁confide	-13120
▁contend	-13121
▁ecclesi	-13122
▁product	-13123
▁quicker	-13124
▁sepulch	-13125
▁shadowy	-13126
▁strings	-13127
▁writers	-13128
▁Shakespe	-13129
▁Stiggins	-13130
▁commonly	-13131
▁immortal	-13132
▁miracles	-13133
▁populace	-13134
▁rattling	-13135
▁reaction	-13136
▁tapestry	-13137
▁unseemly	-13138
▁clergymen	-13139
▁correctly	-13140
▁entrusted	-13141
▁mortified	-13142
▁passenger	-13143
▁proposals	-13144
▁disengaged	-13145
▁gracefully	-13146
▁partiality	-13147
▁reproaches	-13148
▁Accordingly	-13149
▁noiselessly	-13150
▁perpetually	-13151
▁representing	-13152
Dr	-13153
igi	-13154
jon	-13155
▁_“	-13156
ckle	-13157
ieth	-13158
isen	-13159
ruck	-13160
▁Cap	-13161
▁jol	-13162
▁rhy	-13163
Three	-13164
igsen	-13165
onial	-13166
▁Boss	-13167
▁Ever	-13168
▁Ruby	-13169
▁afar	-13170
▁boud	-13171
▁clue	-13172
▁defy	-13173
ailing	-13174
avasov	-13175
upkins	-13176
▁Bless	-13177
▁Gondy	-13178
▁Thing	-13179
▁baker	-13180
▁droll	-13181
▁incor	-13182
▁lilac	-13183
▁parag	-13184
▁parap	-13185
▁scept	-13186
▁tiger	-13187
▁unnot	-13188
▁unpre	-13189
▁vanqu	-13190
Silence	-13191
retches	-13192
▁Corsic	-13193
▁Vallon	-13194
▁boughs	-13195
▁circum	-13196
▁defeat	-13197
▁draper	-13198
▁humbly	-13199
▁injure	-13200
▁liquid	-13201
▁lodger	-13202
▁musing	-13203
▁plague	-13204
▁shaded	-13205
▁shapes	-13206
▁shrink	-13207
▁swayed	-13208
peránski	-13209
▁Vassily	-13210
▁blazing	-13211
▁boudoir	-13212
▁cherish	-13213
▁evinced	-13214
▁packing	-13215
▁relaxed	-13216
▁replies	-13217
▁wheeled	-13218
▁Lyamshin	-13219
▁aperture	-13220
▁assassin	-13221
▁assuring	-13222
▁complied	-13223
▁detested	-13224
▁falconer	-13225
▁indicate	-13226
▁merciful	-13227
▁pavilion	-13228
▁potatoes	-13229
▁realised	-13230
▁sagacity	-13231
▁suppress	-13232
▁swimming	-13233
▁unlikely	-13234
▁Katavasov	-13235
▁assertion	-13236
▁clutching	-13237
▁constancy	-13238
▁conversed	-13239
▁inherited	-13240
▁intensity	-13241
▁sleepless	-13242
illingworth	-13243
▁disturbing	-13244
▁prodigious	-13245
▁generations	-13246
▁schoolmaster	-13247
)—	-13248
IT	-13249
enn	-13250
oug	-13251
put	-13252
usp	-13253
yet	-13254
▁nu	-13255
abol	-13256
dney	-13257
fire	-13258
icle	-13259
igny	-13260
ills	-13261
ndom	-13262
▁Bol	-13263
▁Gab	-13264
▁HIS	-13265
▁ecl	-13266
▁vit	-13267
?...”	-13268
Saint	-13269
ovich	-13270
stool	-13271
▁----	-13272
▁Bald	-13273
▁Mast	-13274
▁aims	-13275
▁alle	-13276
▁baff	-13277
▁cage	-13278
▁dies	-13279
▁epis	-13280
▁inve	-13281
▁laun	-13282
▁pawn	-13283
▁pole	-13284
▁trun	-13285
cellor	-13286
office	-13287
rified	-13288
▁blond	-13289
▁brist	-13290
▁capit	-13291
▁eagle	-13292
▁emerg	-13293
▁lungs	-13294
▁samov	-13295
▁sturd	-13296
antaine	-13297
inished	-13298
ishable	-13299
▁Reform	-13300
▁Reuter	-13301
▁arisen	-13302
▁breaks	-13303
▁comply	-13304
▁devils	-13305
▁fidget	-13306
▁groans	-13307
▁impose	-13308
▁lawful	-13309
▁pedest	-13310
▁raging	-13311
▁sinner	-13312
▁urging	-13313
▁Nupkins	-13314
▁central	-13315
▁clouded	-13316
▁compass	-13317
▁craving	-13318
▁footmen	-13319
▁infancy	-13320
▁lackeys	-13321
▁matches	-13322
▁mockery	-13323
▁oftener	-13324
▁perfume	-13325
▁repress	-13326
▁unmoved	-13327
▁audacity	-13328
▁contains	-13329
▁diverted	-13330
▁election	-13331
▁energies	-13332
▁forcibly	-13333
▁headache	-13334
▁inexplic	-13335
▁kerchief	-13336
▁mustache	-13337
▁Bennigsen	-13338
▁Speránski	-13339
▁celestial	-13340
▁petticoat	-13341
▁provoking	-13342
▁published	-13343
▁rebellion	-13344
▁struggles	-13345
▁influences	-13346
▁underneath	-13347
▁contributed	-13348
▁penetration	-13349
▁countenances	-13350
▁overwhelming	-13351
▁Chillingworth	-13352
RE	-13353
▁”	-13354
Tom	-13355
ssy	-13356
wre	-13357
▁Ba	-13358
▁IV	-13359
Papa	-13360
away	-13361
ziat	-13362
▁App	-13363
▁Swe	-13364
▁flu	-13365
Those	-13366
monde	-13367
pable	-13368
ulian	-13369
▁Oper	-13370
▁Tart	-13371
▁Vien	-13372
▁chal	-13373
▁feud	-13374
▁lain	-13375
▁remn	-13376
achine	-13377
enance	-13378
incing	-13379
▁Allan	-13380
▁Hills	-13381
▁Honor	-13382
▁Madam	-13383
▁belly	-13384
▁crust	-13385
▁forfe	-13386
▁milit	-13387
▁scram	-13388
▁solve	-13389
▁wench	-13390
▁worsh	-13391
irectly	-13392
▁Cousin	-13393
▁Thanks	-13394
▁boards	-13395
▁center	-13396
▁crowds	-13397
▁divide	-13398
▁donkey	-13399
▁fasten	-13400
▁feebly	-13401
▁grotes	-13402
▁hailed	-13403
▁heaped	-13404
▁kicked	-13405
▁ninety	-13406
▁proves	-13407
▁sallow	-13408
▁benches	-13409
▁bullets	-13410
▁embroid	-13411
▁forcing	-13412
▁heiress	-13413
▁logical	-13414
▁mocking	-13415
▁regrets	-13416
▁roaring	-13417
▁unequal	-13418
▁unspeak	-13419
▁vindict	-13420
▁wronged	-13421
mediately	-13422
▁bordered	-13423
▁distract	-13424
▁fancying	-13425
▁glimpses	-13426
▁intrigue	-13427
▁listener	-13428
▁luminous	-13429
▁perished	-13430
▁shivered	-13431
▁starving	-13432
▁strolled	-13433
▁wretches	-13434
▁Barrymore	-13435
▁accounted	-13436
▁attribute	-13437
▁deserving	-13438
▁exercises	-13439
▁fortitude	-13440
▁horrified	-13441
▁imploring	-13442
▁paragraph	-13443
▁patronage	-13444
▁requisite	-13445
▁spectator	-13446
▁Briarfield	-13447
▁indicating	-13448
▁musketeers	-13449
▁enlightened	-13450
▁corresponding	-13451
dr	-13452
cun	-13453
lad	-13454
éra	-13455
mare	-13456
oken	-13457
thur	-13458
▁Rip	-13459
▁esp	-13460
borah	-13461
burgh	-13462
ilias	-13463
llied	-13464
unity	-13465
▁City	-13466
▁Lebe	-13467
▁Turn	-13468
▁epit	-13469
▁glor	-13470
▁guar	-13471
▁uncl	-13472
opened	-13473
ristol	-13474
▁Often	-13475
▁aloof	-13476
▁cling	-13477
▁coals	-13478
▁hates	-13479
▁lords	-13480
▁unres	-13481
▁vouch	-13482
astical	-13483
tically	-13484
▁Mastak	-13485
▁Parson	-13486
▁actors	-13487
▁alight	-13488
▁assail	-13489
▁barred	-13490
▁beamed	-13491
▁coloss	-13492
▁hounds	-13493
▁meddle	-13494
▁noises	-13495
▁random	-13496
▁Bossuet	-13497
▁Chamber	-13498
▁January	-13499
▁Sympson	-13500
▁battles	-13501
▁compose	-13502
▁eminent	-13503
▁gallows	-13504
▁luckily	-13505
▁muffled	-13506
▁scolded	-13507
▁volumes	-13508
ziatnikov	-13509
▁Pavlovna	-13510
▁Probably	-13511
▁bedstead	-13512
▁dripping	-13513
▁publicly	-13514
▁scolding	-13515
▁students	-13516
▁villages	-13517
▁Grantaire	-13518
▁attacking	-13519
▁deceiving	-13520
▁defending	-13521
▁embracing	-13522
▁enclosure	-13523
▁favorable	-13524
▁improving	-13525
▁incessant	-13526
▁murmuring	-13527
▁portmante	-13528
▁Uppercross	-13529
▁inspection	-13530
▁repugnance	-13531
▁settlement	-13532
▁alternative	-13533
▁discoveries	-13534
▁distressing	-13535
▁extravagant	-13536
▁inscription	-13537
▁Mastakovitch	-13538
▁deliberation	-13539
▁condescension	-13540
▁revolutionary	-13541
’—	-13542
Wot	-13543
bow	-13544
dri	-13545
Char	-13546
apes	-13547
cier	-13548
seau	-13549
swer	-13550
whom	-13551
▁Kur	-13552
▁Nun	-13553
▁mit	-13554
akers	-13555
cking	-13556
dling	-13557
erest	-13558
olets	-13559
oning	-13560
raint	-13561
roads	-13562
▁Hand	-13563
▁Inst	-13564
▁Plym	-13565
▁fres	-13566
▁hymn	-13567
▁pays	-13568
▁ripe	-13569
▁sage	-13570
▁slam	-13571
▁spit	-13572
idated	-13573
indeed	-13574
inkles	-13575
intell	-13576
urator	-13577
▁Donne	-13578
▁Dover	-13579
▁Katya	-13580
▁Lucas	-13581
▁Opera	-13582
▁bonds	-13583
▁dishe	-13584
▁drago	-13585
▁flirt	-13586
▁gaunt	-13587
▁homes	-13588
▁imply	-13589
▁villa	-13590
▁vital	-13591
imately	-13592
▁Nether	-13593
▁Sydney	-13594
▁Yulian	-13595
▁angles	-13596
▁boiled	-13597
▁dances	-13598
▁malady	-13599
▁onward	-13600
▁posted	-13601
▁sparks	-13602
▁tyrann	-13603
ceptibly	-13604
▁Bristol	-13605
▁Hindley	-13606
▁defects	-13607
▁factory	-13608
▁honours	-13609
▁marshes	-13610
▁needful	-13611
▁plaster	-13612
▁tossing	-13613
▁unheard	-13614
▁Harville	-13615
▁National	-13616
▁ambassad	-13617
▁casement	-13618
▁cottages	-13619
▁infernal	-13620
▁particip	-13621
▁penitent	-13622
▁skeleton	-13623
▁specimen	-13624
▁sweeping	-13625
▁theories	-13626
especially	-13627
▁assuredly	-13628
▁captivity	-13629
▁courteous	-13630
▁deception	-13631
▁disgraced	-13632
▁engrossed	-13633
▁immensely	-13634
▁subjected	-13635
▁twinkling	-13636
▁compliance	-13637
▁quarrelled	-13638
▁subsequent	-13639
▁Fortunately	-13640
▁awkwardness	-13641
▁professions	-13642
▁treacherous	-13643
▁unmistakable	-13644
▁Lebeziatnikov	-13645
cr	-13646
Sit	-13647
acr	-13648
ann	-13649
bbs	-13650
lys	-13651
sal	-13652
try	-13653
Hall	-13654
afea	-13655
atan	-13656
ibit	-13657
icit	-13658
iere	-13659
meil	-13660
mine	-13661
requ	-13662
▁Lux	-13663
▁rat	-13664
abond	-13665
acies	-13666
ainty	-13667
crown	-13668
illip	-13669
inisc	-13670
paper	-13671
taire	-13672
their	-13673
▁Hold	-13674
▁Iván	-13675
▁Rect	-13676
▁Stay	-13677
▁Walk	-13678
▁godd	-13679
▁rede	-13680
▁ripp	-13681
▁ware	-13682
aporte	-13683
▁Eliza	-13684
▁copse	-13685
▁demol	-13686
▁hoofs	-13687
▁incur	-13688
▁knoll	-13689
▁patri	-13690
Forgive	-13691
fermeil	-13692
ortment	-13693
▁abject	-13694
▁corpor	-13695
▁dainty	-13696
▁deputy	-13697
▁heaved	-13698
▁hurled	-13699
▁planks	-13700
▁quiver	-13701
▁rebuke	-13702
▁rooted	-13703
▁scanty	-13704
▁shield	-13705
Remember	-13706
▁Suppose	-13707
▁charges	-13708
▁decorum	-13709
▁flashes	-13710
▁heights	-13711
▁samovar	-13712
▁squeeze	-13713
▁ushered	-13714
▁wasting	-13715
▁adjusted	-13716
▁caresses	-13717
▁climbing	-13718
▁examples	-13719
▁flattery	-13720
▁hardened	-13721
▁impelled	-13722
▁mistrust	-13723
▁recourse	-13724
▁recurred	-13725
▁shrubber	-13726
▁vicinity	-13727
▁Mihalovna	-13728
▁degrading	-13729
▁dejection	-13730
▁discerned	-13731
▁elaborate	-13732
▁grotesque	-13733
▁merchants	-13734
▁pondering	-13735
▁projected	-13736
▁telegraph	-13737
▁unnoticed	-13738
▁Honourable	-13739
▁chattering	-13740
▁gratifying	-13741
▁habitually	-13742
▁handsomely	-13743
▁monotonous	-13744
▁substitute	-13745
▁contemplate	-13746
▁mantelpiece	-13747
▁inconvenient	-13748
▁philosophical	-13749
▁congratulations	-13750
!”—	-13751
atá	-13752
’--	-13753
▁Cy	-13754
▁_"	-13755
alem	-13756
dish	-13757
dles	-13758
fare	-13759
gery	-13760
ofsk	-13761
quer	-13762
robe	-13763
▁Fen	-13764
▁Leg	-13765
▁bye	-13766
▁gal	-13767
▁jet	-13768
▁maz	-13769
Allow	-13770
ainte	-13771
first	-13772
geons	-13773
osses	-13774
ureau	-13775
▁Bomb	-13776
▁ache	-13777
▁cave	-13778
▁dame	-13779
▁fram	-13780
▁laug	-13781
▁nick	-13782
▁plum	-13783
▁tout	-13784
acrity	-13785
aments	-13786
ifting	-13787
isance	-13788
spring	-13789
veller	-13790
▁Frome	-13791
▁Luxem	-13792
▁Merry	-13793
▁greed	-13794
▁negot	-13795
▁roast	-13796
▁sixth	-13797
askovya	-13798
feeling	-13799
formity	-13800
▁Jessie	-13801
▁aching	-13802
▁babies	-13803
▁cherry	-13804
▁diabol	-13805
▁hinges	-13806
▁normal	-13807
▁patted	-13808
▁stroll	-13809
▁trains	-13810
ishtchev	-13811
▁Council	-13812
▁Deborah	-13813
▁baggage	-13814
▁blinded	-13815
▁boasted	-13816
▁bouquet	-13817
▁crosses	-13818
▁exerted	-13819
▁fervent	-13820
▁pillows	-13821
▁pinched	-13822
▁shipwre	-13823
▁smashed	-13824
▁threats	-13825
▁thyself	-13826
▁wearied	-13827
▁alacrity	-13828
▁artistic	-13829
▁boldness	-13830
▁downcast	-13831
▁escorted	-13832
▁huntsman	-13833
▁modestly	-13834
▁monument	-13835
▁patients	-13836
▁reminisc	-13837
▁smoothed	-13838
▁Parsonage	-13839
▁conceited	-13840
▁forthwith	-13841
▁fragrance	-13842
▁galloping	-13843
▁identical	-13844
▁indulgent	-13845
▁privately	-13846
▁reluctant	-13847
▁straining	-13848
▁stumbling	-13849
▁successor	-13850
▁Luxembourg	-13851
▁combatants	-13852
▁disordered	-13853
▁gratefully	-13854
▁imprisoned	-13855
▁oppression	-13856
▁procurator	-13857
▁suspecting	-13858
▁terminated	-13859
▁Montfermeil	-13860
▁Netherfield	-13861
▁apprehended	-13862
▁constrained	-13863
▁flourishing	-13864
▁universally	-13865
▁Christianity	-13866
▁convulsively	-13867
▁representative	-13868
vo	-13869
mel	-13870
sac	-13871
ser	-13872
▁ju	-13873
Sire	-13874
aten	-13875
atus	-13876
live	-13877
opol	-13878
uick	-13879
umer	-13880
xton	-13881
▁Fis	-13882
▁Nes	-13883
▁pic	-13884
irted	-13885
oress	-13886
plete	-13887
utiny	-13888
xious	-13889
▁Glen	-13890
▁bowl	-13891
▁cert	-13892
▁curl	-13893
▁jaws	-13894
▁mire	-13895
always	-13896
istory	-13897
rifice	-13898
▁Angel	-13899
▁Champ	-13900
▁Kelly	-13901
▁birch	-13902
▁everl	-13903
▁indig	-13904
▁lined	-13905
▁panes	-13906
▁reced	-13907
▁shuff	-13908
▁swing	-13909
Without	-13910
▁Agafea	-13911
▁Arthur	-13912
▁Dowler	-13913
▁Either	-13914
▁Hawley	-13915
▁Samson	-13916
▁Vienna	-13917
▁agents	-13918
▁bureau	-13919
▁buying	-13920
▁darker	-13921
▁dawned	-13922
▁dreamt	-13923
▁ending	-13924
▁hunted	-13925
▁lilies	-13926
▁morose	-13927
▁nursed	-13928
▁paroxy	-13929
▁repaid	-13930
▁resort	-13931
▁sailed	-13932
▁shrunk	-13933
▁strode	-13934
▁tended	-13935
▁thighs	-13936
▁undist	-13937
▁winked	-13938
▁Fischer	-13939
▁Justice	-13940
▁bailiff	-13941
▁binding	-13942
▁conserv	-13943
▁cooking	-13944
▁honored	-13945
▁impenet	-13946
▁lasting	-13947
▁persuas	-13948
▁screwed	-13949
▁sensual	-13950
▁sermons	-13951
▁sharing	-13952
▁slavery	-13953
▁strokes	-13954
▁Kellynch	-13955
▁anteroom	-13956
▁bankrupt	-13957
▁clerical	-13958
▁cylinder	-13959
▁flourish	-13960
▁horsemen	-13961
▁implicit	-13962
▁implored	-13963
▁motioned	-13964
▁quarrels	-13965
▁reverent	-13966
▁vagabond	-13967
▁vehicles	-13968
everything	-13969
▁accidents	-13970
▁childlike	-13971
▁landowner	-13972
▁whiteness	-13973
▁Semyonovna	-13974
▁comforting	-13975
▁dimensions	-13976
▁performing	-13977
▁refinement	-13978
▁inquisitive	-13979
▁substantial	-13980
▁inexplicable	-13981
▁peculiarities	-13982
fed	-13983
Even	-13984
Wery	-13985
acre	-13986
anks	-13987
cart	-13988
cled	-13989
meas	-13990
stra	-13991
árov	-13992
▁Div	-13993
▁Rap	-13994
▁dub	-13995
▁ina	-13996
▁nom	-13997
acked	-13998
armed	-13999
coats	-14000
inese	-14001
itous	-14002
▁Dess	-14003
▁Fate	-14004
▁Plum	-14005
▁Road	-14006
▁abol	-14007
▁oars	-14008
▁pint	-14009
▁ramp	-14010
▁rect	-14011
▁serf	-14012
▁spur	-14013
Enough	-14014
little	-14015
unless	-14016
▁Eager	-14017
▁Helen	-14018
▁Jesus	-14019
▁Josie	-14020
▁azure	-14021
▁beque	-14022
▁chaos	-14023
▁debau	-14024
▁leapt	-14025
▁ludic	-14026
▁noses	-14027
▁plent	-14028
▁recip	-14029
▁recru	-14030
▁sciss	-14031
▁strip	-14032
▁subur	-14033
▁undes	-14034
General	-14035
cuniary	-14036
laisois	-14037
onshire	-14038
▁Beyond	-14039
▁boyish	-14040
▁galley	-14041
▁novels	-14042
▁oldest	-14043
▁parall	-14044
▁rotten	-14045
▁rubles	-14046
▁strove	-14047
▁topics	-14048
▁verand	-14049
▁Justine	-14050
▁lodgers	-14051
▁renders	-14052
▁shyness	-14053
▁threads	-14054
▁Pavlofsk	-14055
▁Rantaine	-14056
▁attribut	-14057
▁banished	-14058
▁brooding	-14059
▁cushions	-14060
▁distaste	-14061
▁estimate	-14062
▁exterior	-14063
▁rewarded	-14064
▁ruffians	-14065
▁sanguine	-14066
▁training	-14067
▁twisting	-14068
▁ascending	-14069
▁battalion	-14070
▁diversion	-14071
▁foreigner	-14072
▁impudence	-14073
▁nightmare	-14074
▁officials	-14075
▁throbbing	-14076
▁archbishop	-14077
▁heightened	-14078
▁occurrence	-14079
▁proclaimed	-14080
▁submissive	-14081
▁undertaker	-14082
▁practically	-14083
▁preliminary	-14084
▁withdrawing	-14085
▁calculations	-14086
▁carelessness	-14087
▁characteristics	-14088
Ne	-14089
za	-14090
Par	-14091
ano	-14092
bon	-14093
oid	-14094
oux	-14095
pus	-14096
▁AN	-14097
▁bi	-14098
▁ox	-14099
cour	-14100
does	-14101
erts	-14102
nine	-14103
onym	-14104
▁jaw	-14105
▁joc	-14106
▁pir	-14107
▁rhe	-14108
aylor	-14109
ogged	-14110
roken	-14111
toned	-14112
▁Land	-14113
▁Nesv	-14114
▁cats	-14115
▁mini	-14116
▁neut	-14117
▁subt	-14118
irited	-14119
pocket	-14120
▁bands	-14121
▁bayon	-14122
▁imped	-14123
▁moods	-14124
▁schoo	-14125
▁siege	-14126
▁sneer	-14127
▁speck	-14128
▁taunt	-14129
▁whims	-14130
▁wills	-14131
▁Bridge	-14132
▁august	-14133
▁bearer	-14134
▁blinds	-14135
▁impuls	-14136
▁paving	-14137
▁snatch	-14138
▁veiled	-14139
▁wisest	-14140
ernation	-14141
▁Benwick	-14142
▁Chillip	-14143
▁clatter	-14144
▁comical	-14145
▁congreg	-14146
▁crooked	-14147
▁diocese	-14148
▁envious	-14149
▁girlish	-14150
▁gratify	-14151
▁kindred	-14152
▁leaping	-14153
▁mortals	-14154
▁motions	-14155
▁nursing	-14156
▁peering	-14157
▁peoples	-14158
▁program	-14159
▁ruffian	-14160
▁rumours	-14161
▁serpent	-14162
▁sources	-14163
▁Blaisois	-14164
▁choosing	-14165
▁commerce	-14166
▁engineer	-14167
▁streamed	-14168
▁Georgiana	-14169
▁Praskovya	-14170
▁contempor	-14171
▁endurance	-14172
▁fisherman	-14173
▁hysterics	-14174
▁imperious	-14175
▁repressed	-14176
▁traveling	-14177
▁twitching	-14178
▁unsettled	-14179
▁accidental	-14180
▁announcing	-14181
▁delicately	-14182
▁retirement	-14183
▁sacrifices	-14184
▁distributed	-14185
▁strengthened	-14186
▁Shtcherbatsky	-14187
▁inexpressible	-14188
▁accomplishments	-14189
▁extraordinarily	-14190
ás	-14191
,”—	-14192
Har	-14193
bug	-14194
cca	-14195
lit	-14196
’?”	-14197
▁Au	-14198
Like	-14199
Most	-14200
Pooh	-14201
alog	-14202
alov	-14203
————	-14204
▁Law	-14205
▁Mac	-14206
assot	-14207
bting	-14208
doors	-14209
ibule	-14210
sized	-14211
▁Blan	-14212
▁Brus	-14213
▁Lake	-14214
▁cant	-14215
▁chir	-14216
▁egot	-14217
▁ster	-14218
▁unbe	-14219
ashvin	-14220
audray	-14221
▁Horse	-14222
▁Petit	-14223
▁agric	-14224
▁chron	-14225
▁corro	-14226
▁effic	-14227
▁luxur	-14228
▁moust	-14229
▁poets	-14230
▁steed	-14231
olution	-14232
▁Provis	-14233
▁Sister	-14234
▁Teresa	-14235
▁Wilson	-14236
▁bigger	-14237
▁cloaks	-14238
▁gentry	-14239
▁hedges	-14240
▁mildly	-14241
▁novice	-14242
▁planet	-14243
▁reared	-14244
▁solved	-14245
▁thrice	-14246
▁tucked	-14247
▁Chinese	-14248
▁borders	-14249
▁concess	-14250
▁glaring	-14251
▁goddess	-14252
▁grimace	-14253
▁melting	-14254
▁pitched	-14255
▁proflig	-14256
▁prophet	-14257
▁streams	-14258
▁swaying	-14259
▁trodden	-14260
▁undergo	-14261
▁Brussels	-14262
▁Glenmire	-14263
▁insanity	-14264
▁proclaim	-14265
▁rustling	-14266
▁scissors	-14267
▁swearing	-14268
▁taciturn	-14269
▁unintell	-14270
▁unlocked	-14271
▁viscount	-14272
▁commotion	-14273
▁integrity	-14274
▁intrigues	-14275
▁irritably	-14276
▁overtaken	-14277
▁powerless	-14278
▁quickness	-14279
▁vestibule	-14280
▁amusements	-14281
▁cleverness	-14282
▁detachment	-14283
▁estimation	-14284
▁imprudence	-14285
▁aristocracy	-14286
▁desperation	-14287
▁neighboring	-14288
▁overflowing	-14289
Jo	-14290
ba	-14291
ds	-14292
ég	-14293
?_”	-14294
EAR	-14295
Pre	-14296
isl	-14297
loc	-14298
rub	-14299
blue	-14300
oyed	-14301
uart	-14302
▁fow	-14303
▁icy	-14304
▁til	-14305
cheon	-14306
rings	-14307
uance	-14308
▁Edin	-14309
▁Scud	-14310
▁Turk	-14311
▁Véra	-14312
▁cess	-14313
▁heer	-14314
▁lids	-14315
▁nigh	-14316
▁pett	-14317
▁stup	-14318
▁ting	-14319
cisely	-14320
lihood	-14321
mighty	-14322
pecial	-14323
powder	-14324
▁Leave	-14325
▁Spitz	-14326
▁Stark	-14327
▁Sykes	-14328
▁ached	-14329
▁autom	-14330
▁basis	-14331
▁beads	-14332
▁grove	-14333
▁heath	-14334
▁hovel	-14335
▁proff	-14336
▁rests	-14337
▁rheum	-14338
▁sighs	-14339
▁unfav	-14340
amation	-14341
bleness	-14342
iations	-14343
igation	-14344
meaning	-14345
mending	-14346
▁Lilias	-14347
▁allude	-14348
▁echoes	-14349
▁elders	-14350
▁hermit	-14351
▁poetic	-14352
▁prohib	-14353
▁rustic	-14354
▁shaped	-14355
▁shrubs	-14356
▁soften	-14357
▁weaker	-14358
assotkin	-14359
▁Hawkins	-14360
▁Laporte	-14361
▁abashed	-14362
▁captive	-14363
▁colored	-14364
▁edifice	-14365
▁flaming	-14366
▁gateway	-14367
▁humming	-14368
▁inmates	-14369
▁irrevoc	-14370
▁rousing	-14371
▁tapping	-14372
▁thickly	-14373
▁applying	-14374
▁devoured	-14375
▁governed	-14376
▁problems	-14377
▁recoiled	-14378
▁unbroken	-14379
▁criminals	-14380
▁decorated	-14381
▁explosion	-14382
▁interchan	-14383
▁pecuniary	-14384
▁troubling	-14385
▁accomplice	-14386
▁inexorable	-14387
▁loneliness	-14388
▁preserving	-14389
▁successive	-14390
▁tormenting	-14391
▁alternately	-14392
▁confidently	-14393
▁meditations	-14394
▁sorrowfully	-14395
▁administered	-14396
▁discontented	-14397
▁subterranean	-14398
▁consternation	-14399
▁imperceptible	-14400
▁significantly	-14401
▁Ardalionovitch	-14402
▁acknowledgment	-14403
ár	-14404
Ant	-14405
Isn	-14406
von	-14407
▁Ay	-14408
Anne	-14409
exam	-14410
olit	-14411
omme	-14412
ravo	-14413
rels	-14414
rini	-14415
▁Dry	-14416
▁Fro	-14417
▁Ted	-14418
▁enl	-14419
▁jam	-14420
Phara	-14421
ganov	-14422
locks	-14423
oulon	-14424
▁Lyme	-14425
▁anew	-14426
▁begg	-14427
▁cuir	-14428
▁garb	-14429
▁imbe	-14430
▁orth	-14431
▁rung	-14432
▁toes	-14433
▁unhe	-14434
Nobody	-14435
abouts	-14436
eville	-14437
rester	-14438
▁Lobbs	-14439
▁Seine	-14440
▁Sieur	-14441
▁adieu	-14442
▁arbit	-14443
▁clasp	-14444
▁moves	-14445
▁retic	-14446
▁tease	-14447
▁unaff	-14448
▁wager	-14449
▁waver	-14450
Pharaon	-14451
ciences	-14452
▁Better	-14453
▁Greece	-14454
▁avenge	-14455
▁barber	-14456
▁denial	-14457
▁divert	-14458
▁infamy	-14459
▁ranged	-14460
▁ridden	-14461
▁robust	-14462
▁rouble	-14463
▁wagons	-14464
▁Antoine	-14465
▁Caudray	-14466
▁Richard	-14467
▁Sampson	-14468
▁concili	-14469
▁crawled	-14470
▁curling	-14471
▁dreamer	-14472
▁episode	-14473
▁patches	-14474
▁praises	-14475
▁profile	-14476
▁tending	-14477
▁Scarcely	-14478
▁buttoned	-14479
▁crowding	-14480
▁ecstatic	-14481
▁fleeting	-14482
▁launched	-14483
▁practise	-14484
▁scrutiny	-14485
▁stifling	-14486
▁stripped	-14487
▁tempting	-14488
▁trampled	-14489
▁whirling	-14490
▁Alexandra	-14491
▁Celestine	-14492
▁Epanchins	-14493
▁deficient	-14494
▁destitute	-14495
▁mechanism	-14496
▁softening	-14497
▁diabolical	-14498
▁endeavours	-14499
▁exchanging	-14500
olenishtchev	-14501
▁consumption	-14502
▁fascination	-14503
▁superstition	-14504
▁superstitious	-14505
▁representation	-14506
bi	-14507
eh	-14508
Sam	-14509
dra	-14510
gor	-14511
imp	-14512
mph	-14513
van	-14514
Mart	-14515
arks	-14516
bric	-14517
cted	-14518
mers	-14519
west	-14520
▁Ask	-14521
▁Cur	-14522
▁Fif	-14523
▁ank	-14524
chers	-14525
cular	-14526
ignon	-14527
lings	-14528
riers	-14529
shell	-14530
ubble	-14531
▁Aust	-14532
▁Supp	-14533
▁alms	-14534
▁cuff	-14535
▁omin	-14536
▁whir	-14537
Hurrah	-14538
having	-14539
horses	-14540
iating	-14541
icheff	-14542
struck	-14543
umbull	-14544
▁Beaut	-14545
▁Lives	-14546
▁Yates	-14547
▁adequ	-14548
▁aided	-14549
▁arrow	-14550
▁chant	-14551
▁heroe	-14552
▁lifet	-14553
▁melod	-14554
▁modes	-14555
▁plank	-14556
▁rebel	-14557
▁ridge	-14558
▁trait	-14559
▁unmar	-14560
inently	-14561
▁Amalia	-14562
▁Lowten	-14563
▁Office	-14564
▁astray	-14565
▁blouse	-14566
▁bridal	-14567
▁brooch	-14568
▁captiv	-14569
▁caring	-14570
▁enters	-14571
▁expend	-14572
▁scrape	-14573
▁shells	-14574
▁solace	-14575
▁Yashvin	-14576
▁actress	-14577
▁breasts	-14578
▁climate	-14579
▁compart	-14580
▁conceit	-14581
▁doubled	-14582
▁feeding	-14583
▁grammar	-14584
▁howling	-14585
▁knitted	-14586
▁moaning	-14587
▁provoke	-14588
▁replace	-14589
▁seasons	-14590
▁shorter	-14591
▁travels	-14592
▁victims	-14593
▁wherein	-14594
▁whipped	-14595
Something	-14596
▁Highness	-14597
▁Kalganov	-14598
▁Pastrini	-14599
▁Superior	-14600
▁Trumbull	-14601
▁Vassenka	-14602
▁Voltaire	-14603
▁accosted	-14604
▁ballroom	-14605
▁checking	-14606
▁coughing	-14607
▁dramatic	-14608
▁northern	-14609
▁smoothly	-14610
▁Edinburgh	-14611
▁appealing	-14612
▁cultivate	-14613
▁customers	-14614
▁elevation	-14615
▁hastening	-14616
▁historian	-14617
▁inflicted	-14618
▁ludicrous	-14619
▁perchance	-14620
▁scratched	-14621
▁shameless	-14622
▁shrinking	-14623
▁ceremonies	-14624
▁disgusting	-14625
▁hospitable	-14626
▁manifested	-14627
▁nineteenth	-14628
▁prosperous	-14629
▁recompense	-14630
▁instinctive	-14631
▁originality	-14632
▁proletariat	-14633
▁quarrelling	-14634
▁mysteriously	-14635
▁forgetfulness	-14636
▁reproachfully	-14637
LE	-14638
OM	-14639
bus	-14640
hov	-14641
oys	-14642
pey	-14643
▁cy	-14644
apan	-14645
[...]
